{
  "version": "1.0",
  "truncation": null,
  "padding": null,
  "added_tokens": [
    {
      "id": 0,
      "content": "<|pad|>",
      "single_word": false,
      "lstrip": false,
      "rstrip": false,
      "normalized": false,
      "special": true
    },
    {
      "id": 1,
      "content": "<|unk|>",
      "single_word": false,
      "lstrip": false,
      "rstrip": false,
      "normalized": false,
      "special": true
    },
    {
      "id": 2,
      "content": "<|bos|>",
      "single_word": false,
      "lstrip": false,
      "rstrip": false,
      "normalized": false,
      "special": true
    },
    {
      "id": 3,
      "content": "<|eos|>",
      "single_word": false,
      "lstrip": false,
      "rstrip": false,
      "normalized": false,
      "special": true
    }
  ],
  "normalizer": {
    "type": "Sequence",
    "normalizers": [
      {
        "type": "NFKC"
      }
    ]
  },
  "pre_tokenizer": {
    "type": "ByteLevel",
    "add_prefix_space": false,
    "trim_offsets": true,
    "use_regex": true
  },
  "post_processor": {
    "type": "TemplateProcessing",
    "single": [
      {
        "SpecialToken": {
          "id": "<|bos|>",
          "type_id": 0
        }
      },
      {
        "Sequence": {
          "id": "A",
          "type_id": 0
        }
      },
      {
        "SpecialToken": {
          "id": "<|eos|>",
          "type_id": 0
        }
      }
    ],
    "pair": [
      {
        "Sequence": {
          "id": "A",
          "type_id": 0
        }
      },
      {
        "Sequence": {
          "id": "B",
          "type_id": 1
        }
      }
    ],
    "special_tokens": {
      "<|bos|>": {
        "id": "<|bos|>",
        "ids": [
          2
        ],
        "tokens": [
          "<|bos|>"
        ]
      },
      "<|eos|>": {
        "id": "<|eos|>",
        "ids": [
          3
        ],
        "tokens": [
          "<|eos|>"
        ]
      }
    }
  },
  "decoder": {
    "type": "ByteLevel",
    "add_prefix_space": true,
    "trim_offsets": true,
    "use_regex": true
  },
  "model": {
    "type": "BPE",
    "dropout": null,
    "unk_token": "<|unk|>",
    "continuing_subword_prefix": null,
    "end_of_word_suffix": null,
    "fuse_unk": false,
    "byte_fallback": false,
    "ignore_merges": false,
    "vocab": {
      "<|pad|>": 0,
      "<|unk|>": 1,
      "<|bos|>": 2,
      "<|eos|>": 3,
      "!": 4,
      "\"": 5,
      "#": 6,
      "$": 7,
      "%": 8,
      "&": 9,
      "'": 10,
      "(": 11,
      ")": 12,
      "*": 13,
      "+": 14,
      ",": 15,
      "-": 16,
      ".": 17,
      "/": 18,
      "0": 19,
      "1": 20,
      "2": 21,
      "3": 22,
      "4": 23,
      "5": 24,
      "6": 25,
      "7": 26,
      "8": 27,
      "9": 28,
      ":": 29,
      ";": 30,
      "<": 31,
      "=": 32,
      ">": 33,
      "?": 34,
      "@": 35,
      "A": 36,
      "B": 37,
      "C": 38,
      "D": 39,
      "E": 40,
      "F": 41,
      "G": 42,
      "H": 43,
      "I": 44,
      "J": 45,
      "K": 46,
      "L": 47,
      "M": 48,
      "N": 49,
      "O": 50,
      "P": 51,
      "Q": 52,
      "R": 53,
      "S": 54,
      "T": 55,
      "U": 56,
      "V": 57,
      "W": 58,
      "X": 59,
      "Y": 60,
      "Z": 61,
      "[": 62,
      "\\": 63,
      "]": 64,
      "^": 65,
      "_": 66,
      "`": 67,
      "a": 68,
      "b": 69,
      "c": 70,
      "d": 71,
      "e": 72,
      "f": 73,
      "g": 74,
      "h": 75,
      "i": 76,
      "j": 77,
      "k": 78,
      "l": 79,
      "m": 80,
      "n": 81,
      "o": 82,
      "p": 83,
      "q": 84,
      "r": 85,
      "s": 86,
      "t": 87,
      "u": 88,
      "v": 89,
      "w": 90,
      "x": 91,
      "y": 92,
      "z": 93,
      "{": 94,
      "|": 95,
      "}": 96,
      "~": 97,
      "¡": 98,
      "¢": 99,
      "£": 100,
      "¤": 101,
      "¥": 102,
      "¦": 103,
      "§": 104,
      "¨": 105,
      "©": 106,
      "ª": 107,
      "«": 108,
      "¬": 109,
      "®": 110,
      "¯": 111,
      "°": 112,
      "±": 113,
      "²": 114,
      "³": 115,
      "´": 116,
      "µ": 117,
      "¶": 118,
      "·": 119,
      "¸": 120,
      "¹": 121,
      "º": 122,
      "»": 123,
      "¼": 124,
      "½": 125,
      "¾": 126,
      "¿": 127,
      "À": 128,
      "Á": 129,
      "Â": 130,
      "Ã": 131,
      "Ä": 132,
      "Å": 133,
      "Æ": 134,
      "Ç": 135,
      "È": 136,
      "É": 137,
      "Ê": 138,
      "Ë": 139,
      "Ì": 140,
      "Í": 141,
      "Î": 142,
      "Ï": 143,
      "Ð": 144,
      "Ñ": 145,
      "Ò": 146,
      "Ó": 147,
      "Ô": 148,
      "Õ": 149,
      "Ö": 150,
      "×": 151,
      "Ø": 152,
      "Ù": 153,
      "Ú": 154,
      "Û": 155,
      "Ü": 156,
      "Ý": 157,
      "Þ": 158,
      "ß": 159,
      "à": 160,
      "á": 161,
      "â": 162,
      "ã": 163,
      "ä": 164,
      "å": 165,
      "æ": 166,
      "ç": 167,
      "è": 168,
      "é": 169,
      "ê": 170,
      "ë": 171,
      "ì": 172,
      "í": 173,
      "î": 174,
      "ï": 175,
      "ð": 176,
      "ñ": 177,
      "ò": 178,
      "ó": 179,
      "ô": 180,
      "õ": 181,
      "ö": 182,
      "÷": 183,
      "ø": 184,
      "ù": 185,
      "ú": 186,
      "û": 187,
      "ü": 188,
      "ý": 189,
      "þ": 190,
      "ÿ": 191,
      "Ā": 192,
      "ā": 193,
      "Ă": 194,
      "ă": 195,
      "Ą": 196,
      "ą": 197,
      "Ć": 198,
      "ć": 199,
      "Ĉ": 200,
      "ĉ": 201,
      "Ċ": 202,
      "ċ": 203,
      "Č": 204,
      "č": 205,
      "Ď": 206,
      "ď": 207,
      "Đ": 208,
      "đ": 209,
      "Ē": 210,
      "ē": 211,
      "Ĕ": 212,
      "ĕ": 213,
      "Ė": 214,
      "ė": 215,
      "Ę": 216,
      "ę": 217,
      "Ě": 218,
      "ě": 219,
      "Ĝ": 220,
      "ĝ": 221,
      "Ğ": 222,
      "ğ": 223,
      "Ġ": 224,
      "ġ": 225,
      "Ģ": 226,
      "ģ": 227,
      "Ĥ": 228,
      "ĥ": 229,
      "Ħ": 230,
      "ħ": 231,
      "Ĩ": 232,
      "ĩ": 233,
      "Ī": 234,
      "ī": 235,
      "Ĭ": 236,
      "ĭ": 237,
      "Į": 238,
      "į": 239,
      "İ": 240,
      "ı": 241,
      "Ĳ": 242,
      "ĳ": 243,
      "Ĵ": 244,
      "ĵ": 245,
      "Ķ": 246,
      "ķ": 247,
      "ĸ": 248,
      "Ĺ": 249,
      "ĺ": 250,
      "Ļ": 251,
      "ļ": 252,
      "Ľ": 253,
      "ľ": 254,
      "Ŀ": 255,
      "ŀ": 256,
      "Ł": 257,
      "ł": 258,
      "Ń": 259,
      "ä¸": 260,
      "Ġa": 261,
      "on": 262,
      "Ġt": 263,
      "re": 264,
      "in": 265,
      "at": 266,
      "Ġc": 267,
      "er": 268,
      "Ġs": 269,
      "ãĢ": 270,
      "åı": 271,
      "en": 272,
      "Ġth": 273,
      "is": 274,
      "es": 275,
      "ion": 276,
      "åĪ": 277,
      "ãĢĤ": 278,
      "an": 279,
      "al": 280,
      "è¿": 281,
      "or": 282,
      "Ġm": 283,
      "Ġd": 284,
      "ç»": 285,
      "it": 286,
      "ä»": 287,
      "çļ": 288,
      "çļĦ": 289,
      "Ġp": 290,
      "æľ": 291,
      "å®": 292,
      "åĲ": 293,
      "ar": 294,
      "ct": 295,
      "Ġan": 296,
      "Ġb": 297,
      "le": 298,
      "åħ": 299,
      "Ġre": 300,
      "çĶ": 301,
      "ing": 302,
      "ro": 303,
      "ic": 304,
      "å¤": 305,
      "Ġthe": 306,
      "ä½": 307,
      "Ġf": 308,
      "æĺ": 309,
      "Ġw": 310,
      "éĩ": 311,
      "us": 312,
      "åº": 313,
      "æķ": 314,
      "Ġand": 315,
      "è§": 316,
      "ed": 317,
      "Ġin": 318,
      "Ġis": 319,
      "ation": 320,
      "è®": 321,
      "ä¸į": 322,
      "om": 323,
      "è¯": 324,
      "Ġo": 325,
      "Ġe": 326,
      "ent": 327,
      "äº": 328,
      "ĥ½": 329,
      "ä¸Ģ": 330,
      "åľ": 331,
      "æĪ": 332,
      "åı¯": 333,
      "åĬ": 334,
      "Ġn": 335,
      "åĽ": 336,
      "éĢ": 337,
      "åĴ": 338,
      "åĴĮ": 339,
      "æŀ": 340,
      "ä¹": 341,
      "æĺ¯": 342,
      "åĮ": 343,
      "Ġto": 344,
      "Ġst": 345,
      "æĹ": 346,
      "Ġthat": 347,
      "as": 348,
      "he": 349,
      "ly": 350,
      "Ġbe": 351,
      "èĥ½": 352,
      "åŃ": 353,
      "æķ°": 354,
      "ä¼": 355,
      "ce": 356,
      "Ġcon": 357,
      "im": 358,
      "Ġl": 359,
      "æĸ": 360,
      "æł": 361,
      "id": 362,
      "æĢ": 363,
      "çĶ¨": 364,
      "å¹": 365,
      "åĪĨ": 366,
      "ut": 367,
      "ãĢģ": 368,
      "åľ¨": 369,
      "ul": 370,
      "è¦": 371,
      "è¿Ļ": 372,
      "ra": 373,
      "è¦ģ": 374,
      "æĹ¶": 375,
      "å¿": 376,
      "use": 377,
      "æĿ": 378,
      "å¸": 379,
      "ä¸ª": 380,
      "å¼": 381,
      "éĩı": 382,
      "éĻ": 383,
      "åĲĮ": 384,
      "æĬ": 385,
      "un": 386,
      "çĽ": 387,
      "æŃ": 388,
      "Ġcom": 389,
      "et": 390,
      "åĩ": 391,
      "æĪĲ": 392,
      "è¡": 393,
      "¦Ĥ": 394,
      "å®ļ": 395,
      "ot": 396,
      "il": 397,
      "çİ": 398,
      "ve": 399,
      "è¾": 400,
      "å¯": 401,
      "å°": 402,
      "ä»¥": 403,
      "éĹ": 404,
      "Ġcan": 405,
      "ä¸º": 406,
      "è§£": 407,
      "åº¦": 408,
      "å½": 409,
      "åĮĸ": 410,
      "Ġon": 411,
      "Ġwh": 412,
      "ä¸Ń": 413,
      "çĲ": 414,
      "ç»ĵ": 415,
      "åĽł": 416,
      "å®ŀ": 417,
      "ep": 418,
      "æľī": 419,
      "ç§": 420,
      "Ġpro": 421,
      "Ġh": 422,
      "st": 423,
      "åıĺ": 424,
      "èĢ": 425,
      "ist": 426,
      "å¾": 427,
      "Ġof": 428,
      "åĨ": 429,
      "Ġal": 430,
      "ĠT": 431,
      "qu": 432,
      "å¹¶": 433,
      "çĲĨ": 434,
      "ch": 435,
      "æį": 436,
      "ate": 437,
      "åºĶ": 438,
      "ĠA": 439,
      "Ġor": 440,
      "æĬĬ": 441,
      "æĶ": 442,
      "åı¯ä»¥": 443,
      "Ġbec": 444,
      "æĢ§": 445,
      "am": 446,
      "el": 447,
      "ab": 448,
      "å¸¸": 449,
      "æĽ": 450,
      "é¢": 451,
      "ä¼ļ": 452,
      "Ġmo": 453,
      "ity": 454,
      "æµ": 455,
      "Ġg": 456,
      "æ³": 457,
      "åĪ°": 458,
      "æŀľ": 459,
      "if": 460,
      "åį": 461,
      "æİ": 462,
      "ause": 463,
      "ver": 464,
      "æĽ´": 465,
      "Ġbecause": 466,
      "è¿ĩ": 467,
      "ä¿": 468,
      "ri": 469,
      "çĽ¸": 470,
      "ĠI": 471,
      "res": 472,
      "ge": 473,
      "ol": 474,
      "ction": 475,
      "çī": 476,
      "æ¦Ĥ": 477,
      "åħ³": 478,
      "æł·": 479,
      "ter": 480,
      "çľ": 481,
      "ä½ĵ": 482,
      "éľ": 483,
      "å·": 484,
      "orm": 485,
      "ig": 486,
      "è´": 487,
      "Ġex": 488,
      "Ġcomp": 489,
      "éĢļ": 490,
      "ä¸İ": 491,
      "ur": 492,
      "æľº": 493,
      "æį®": 494,
      "ow": 495,
      "ç¨": 496,
      "éľĢ": 497,
      "ç³": 498,
      "éĹ´": 499,
      "æ¨": 500,
      "æ¨¡": 501,
      "æī": 502,
      "Ġma": 503,
      "åĪ¶": 504,
      "pl": 505,
      "èĢĮ": 506,
      "ç³»": 507,
      "iz": 508,
      "um": 509,
      "ical": 510,
      "åŀ": 511,
      "äºİ": 512,
      "os": 513,
      "éľĢè¦ģ": 514,
      "çĶŁ": 515,
      "Ġch": 516,
      "åŀĭ": 517,
      "å¯¹": 518,
      "éĩį": 519,
      "æĪĸ": 520,
      "ä»¶": 521,
      "æľĢ": 522,
      "è®¡": 523,
      "pt": 524,
      "em": 525,
      "è¯¯": 526,
      "åĬ¨": 527,
      "åĲĪ": 528,
      "æľ¬": 529,
      "Ġr": 530,
      "ith": 531,
      "ä¸Ģä¸ª": 532,
      "ke": 533,
      "end": 534,
      "åŃ¦": 535,
      "ä¾": 536,
      "Ġne": 537,
      "æĸ¹": 538,
      "æŁ": 539,
      "Ġv": 540,
      "çķ": 541,
      "fe": 542,
      "å¤ļ": 543,
      "è¡¨": 544,
      "Ġnot": 545,
      "å¤§": 546,
      "åĲİ": 547,
      "ers": 548,
      "åİ": 549,
      "è¿ĺ": 550,
      "éĻħ": 551,
      "æķ°æį®": 552,
      "ment": 553,
      "å±": 554,
      "åĵ": 555,
      "çº": 556,
      "å®ŀéĻħ": 557,
      "çŃ": 558,
      "ces": 559,
      "åģ": 560,
      "çĶµ": 561,
      "du": 562,
      "ren": 563,
      "åŃĲ": 564,
      "èĩ": 565,
      "èµ": 566,
      "åĮº": 567,
      "ä½¿": 568,
      "éĶ": 569,
      "æ¯": 570,
      "ç»Ł": 571,
      "so": 572,
      "å¿µ": 573,
      "ç«": 574,
      "ĠThe": 575,
      "æ¦Ĥå¿µ": 576,
      "ç®": 577,
      "Ġit": 578,
      "æ¨¡åŀĭ": 579,
      "ile": 580,
      "Ġuse": 581,
      "æĿ¡": 582,
      "å¹¶ä¸į": 583,
      "ä»İ": 584,
      "Ġas": 585,
      "éļ": 586,
      "ä¹ĭ": 587,
      "Ġwith": 588,
      "æı": 589,
      "ä¸įåĲĮ": 590,
      "Ġme": 591,
      "åı¯èĥ½": 592,
      "Ġun": 593,
      "Ġdep": 594,
      "ç¡": 595,
      "æ¸": 596,
      "her": 597,
      "ç§į": 598,
      "çľĭ": 599,
      "pe": 600,
      "å¤į": 601,
      "åĢ": 602,
      "æĭ": 603,
      "çİ°": 604,
      "ant": 605,
      "ations": 606,
      "è½": 607,
      "Ġid": 608,
      "ure": 609,
      "æŃ¤": 610,
      "æĿ¡ä»¶": 611,
      "éĥ": 612,
      "éĥ¨": 613,
      "åıĳ": 614,
      "ck": 615,
      "rom": 616,
      "ill": 617,
      "çİĩ": 618,
      "è°": 619,
      "ain": 620,
      "ç¨ĭ": 621,
      "çī©": 622,
      "å¦Ĥ": 623,
      "æŀĦ": 624,
      "ç©": 625,
      "éª": 626,
      "æ°": 627,
      "ies": 628,
      "Ġse": 629,
      "æ³ķ": 630,
      "Ġwhile": 631,
      "Ġare": 632,
      "æŃ£": 633,
      "åħĪ": 634,
      "åĩº": 635,
      "æĮ": 636,
      "Ġde": 637,
      "Ġalso": 638,
      "å¢": 639,
      "est": 640,
      "ions": 641,
      "ive": 642,
      "è´¨": 643,
      "çĲĨè§£": 644,
      "æµĭ": 645,
      "ç»ĵæŀľ": 646,
      "æ·": 647,
      "iv": 648,
      "Ġco": 649,
      "ĠS": 650,
      "éĥ½": 651,
      "å¼ı": 652,
      "ä¹ī": 653,
      "åŁ": 654,
      "éªĮ": 655,
      "è¶": 656,
      "åŃĺ": 657,
      "é¢ĺ": 658,
      "der": 659,
      "Ġstill": 660,
      "art": 661,
      "Ġfrom": 662,
      "è¡Į": 663,
      "Ġdif": 664,
      "çĤ": 665,
      "ç½": 666,
      "åįķ": 667,
      "çŁ": 668,
      "éĿ": 669,
      "Ġdo": 670,
      "ç»ĵæŀĦ": 671,
      "åĢ¼": 672,
      "Ġdepend": 673,
      "ç¡®": 674,
      "åıĺåĮĸ": 675,
      "åıª": 676,
      "çĤ¹": 677,
      "é«": 678,
      "å·®": 679,
      "é«ĺ": 680,
      "éĩĬ": 681,
      "feren": 682,
      "æĶ¾": 683,
      "ans": 684,
      "ĠTh": 685,
      "éĹ®": 686,
      "åĪ¤": 687,
      "Ġchan": 688,
      "Ġus": 689,
      "æŁ¥": 690,
      "åĲĳ": 691,
      "ial": 692,
      "Ġhe": 693,
      "æ¯Ķ": 694,
      "ä½ľ": 695,
      "ç«ĭ": 696,
      "ens": 697,
      "è§ģ": 698,
      "mon": 699,
      "åĪ«": 700,
      "Ġmod": 701,
      "åİŁ": 702,
      "ay": 703,
      "ĠIt": 704,
      "æģ": 705,
      "æ£": 706,
      "ated": 707,
      "Ġres": 708,
      "Ġcont": 709,
      "Ġsu": 710,
      "åĽŀ": 711,
      "ä¿¡": 712,
      "Ġint": 713,
      "åĽłä¸º": 714,
      "ç³»ç»Ł": 715,
      "çŃī": 716,
      "æĸ°": 717,
      "è¾ĥ": 718,
      "æ£Ģ": 719,
      "ort": 720,
      "çł": 721,
      "åĬĽ": 722,
      "act": 723,
      "Ġwhe": 724,
      "æŀĲ": 725,
      "rib": 726,
      "ä¸Ĭ": 727,
      "ç»Ħ": 728,
      "æĢģ": 729,
      "å®ĥ": 730,
      "æĿ¥": 731,
      "è®¾": 732,
      "ire": 733,
      "Ġdist": 734,
      "Ġwhen": 735,
      "Ġstr": 736,
      "ract": 737,
      "æİ¥": 738,
      "æĻ": 739,
      "ç®Ĺ": 740,
      "ps": 741,
      "able": 742,
      "è¯ģ": 743,
      "èĩª": 744,
      "ir": 745,
      "Ġfor": 746,
      "è§£éĩĬ": 747,
      "éģ": 748,
      "åıį": 749,
      "Ġap": 750,
      "å®ļä¹ī": 751,
      "éĺ": 752,
      "form": 753,
      "éĻĲ": 754,
      "per": 755,
      "Ġdat": 756,
      "åĬ¡": 757,
      "ä¹Ł": 758,
      "æĶ¹": 759,
      "ea": 760,
      "ult": 761,
      "é¡": 762,
      "æĸŃ": 763,
      "å½¢": 764,
      "Ġen": 765,
      "è¿ĳ": 766,
      "éĹ®é¢ĺ": 767,
      "³å®ļ": 768,
      "and": 769,
      "æłĩ": 770,
      "reas": 771,
      "Ġcommon": 772,
      "åĪĨæŀĲ": 773,
      "Ġmodel": 774,
      "ice": 775,
      "äºĽ": 776,
      "Ġdifferen": 777,
      "åĵį": 778,
      "Ġone": 779,
      "å¹³": 780,
      "æĦ": 781,
      "Ġso": 782,
      "æľºåĪ¶": 783,
      "ine": 784,
      "Ġim": 785,
      "è§Ĥ": 786,
      "ful": 787,
      "åħ·": 788,
      "åĬł": 789,
      "è·": 790,
      "å°ı": 791,
      "ility": 792,
      "åĻ": 793,
      "Ġmat": 794,
      "åľº": 795,
      "ind": 796,
      "Ġsh": 797,
      "ence": 798,
      "å½±": 799,
      "rans": 800,
      "Ġle": 801,
      "od": 802,
      "éĽ": 803,
      "åıĤ": 804,
      "åħ¥": 805,
      "lo": 806,
      "ä¸ĭ": 807,
      "lect": 808,
      "éļı": 809,
      "Ġac": 810,
      "ib": 811,
      "å¼Ģ": 812,
      "èĥ": 813,
      "æĺİ": 814,
      "imit": 815,
      "è°ĥ": 816,
      "RO": 817,
      "ad": 818,
      "åĲ¦": 819,
      "è¿Ļç§į": 820,
      "Ġcompar": 821,
      "å½±åĵį": 822,
      "åĽłæŃ¤": 823,
      "åĪĻ": 824,
      "éĢŁ": 825,
      "ism": 826,
      "Ġev": 827,
      "rain": 828,
      "Ġdoes": 829,
      "æķ´": 830,
      "Ġlimit": 831,
      "Ńç»": 832,
      "æķĪ": 833,
      "éĢļå¸¸": 834,
      "è®Ńç»": 835,
      "çķĮ": 836,
      "è®Ńç»ĥ": 837,
      "ork": 838,
      "è¾¹": 839,
      "ect": 840,
      "Ġuseful": 841,
      "ates": 842,
      "Ġpre": 843,
      "å¸¸è§ģ": 844,
      "ary": 845,
      "åŁº": 846,
      "åĿ": 847,
      "æ¸ħ": 848,
      "Ġsam": 849,
      "ison": 850,
      "ä½Ĩ": 851,
      "chan": 852,
      "LE": 853,
      "è¿Ļæł·": 854,
      "Ġcomparison": 855,
      "ual": 856,
      "åĲĮæĹ¶": 857,
      "igh": 858,
      "åºı": 859,
      "æıı": 860,
      "éķ": 861,
      "å®¹": 862,
      "Ġlo": 863,
      "è¿Ļä¸ª": 864,
      "åĨħ": 865,
      "ä¿Ŀ": 866,
      "ç¼": 867,
      "æĥ": 868,
      "ance": 869,
      "Ġidea": 870,
      "ĠIn": 871,
      "Ġdes": 872,
      "Ġsc": 873,
      "å¤ĸ": 874,
      "æ²": 875,
      "Ġpo": 876,
      "cess": 877,
      "ä»£": 878,
      "Ġby": 879,
      "cept": 880,
      "è½¬": 881,
      "æ±": 882,
      "ĠThis": 883,
      "age": 884,
      "åıĹ": 885,
      "yst": 886,
      "ĠF": 887,
      "ä»»": 888,
      "è¿Ľ": 889,
      "å¿ĥ": 890,
      "å°ĳ": 891,
      "éĢļè¿ĩ": 892,
      "ition": 893,
      "ges": 894,
      "æº": 895,
      "Ġall": 896,
      "åĳ": 897,
      "Ġat": 898,
      "è®º": 899,
      "è¿°": 900,
      "æ··": 901,
      "ç´": 902,
      "ä½¿çĶ¨": 903,
      "Ġdata": 904,
      "±¡": 905,
      "è±¡": 906,
      "Ġdifferent": 907,
      "æııè¿°": 908,
      "ä¸»": 909,
      "Ġreal": 910,
      "Ġtrans": 911,
      "è¾ĵ": 912,
      "åĻ¨": 913,
      "port": 914,
      "Ġpract": 915,
      "æĶ¹åıĺ": 916,
      "ç¦": 917,
      "ign": 918,
      "ake": 919,
      "pa": 920,
      "ä½į": 921,
      "Ġro": 922,
      "ple": 923,
      "ization": 924,
      "éķ¿": 925,
      "oun": 926,
      "uct": 927,
      "Ġad": 928,
      "åºĶçĶ¨": 929,
      "pro": 930,
      "Ġprodu": 931,
      "ç¦»": 932,
      "CT": 933,
      "ud": 934,
      "æµģ": 935,
      "plic": 936,
      "è¾¹çķĮ": 937,
      "ore": 938,
      "åī": 939,
      "çº¿": 940,
      "éĶ®": 941,
      "Ġmechan": 942,
      "Ġrequ": 943,
      "æĺ¯åĲ¦": 944,
      "Ġmist": 945,
      "å¾Ĺ": 946,
      "Ġval": 947,
      "ystem": 948,
      "Ġob": 949,
      "ability": 950,
      "ELE": 951,
      "Ġrel": 952,
      "çĶ±": 953,
      "ong": 954,
      "å½ĵ": 955,
      "æĻ¯": 956,
      "ç±": 957,
      "ä¾Ŀ": 958,
      "ELECT": 959,
      "äºĭ": 960,
      "æ¬": 961,
      "æŃ¥": 962,
      "çħ": 963,
      "çħ§": 964,
      "Ġmistake": 965,
      "å¦Ĥæŀľ": 966,
      "Ġhel": 967,
      "ĠC": 968,
      "çľŁ": 969,
      "are": 970,
      "ink": 971,
      "Ġdepends": 972,
      "arb": 973,
      "cy": 974,
      "å¢ĥ": 975,
      "ROM": 976,
      "ari": 977,
      "Ġprob": 978,
      "Ġmore": 979,
      "ĠFROM": 980,
      "æł·æľ¬": 981,
      "ç±»": 982,
      "Ġform": 983,
      "ç©º": 984,
      "è§Ħ": 985,
      "åľ°": 986,
      "æ¯Ķè¾ĥ": 987,
      "å®Į": 988,
      "æĹł": 989,
      "æľŁ": 990,
      "ug": 991,
      "av": 992,
      "erv": 993,
      "ä¸ŃçļĦ": 994,
      "èĢħ": 995,
      "Ġfact": 996,
      "çĬ": 997,
      "çĬ¶": 998,
      "ä¹Ī": 999,
      "èµ·": 1000,
      "Ġpractice": 1001,
      "Ġsystem": 1002,
      "ics": 1003,
      "ting": 1004,
      "Ġconcept": 1005,
      "Ġbut": 1006,
      "ä¸įèĥ½": 1007,
      "èµĸ": 1008,
      "åĪ¤æĸŃ": 1009,
      "Ġmechanism": 1010,
      "ä¾Ŀèµĸ": 1011,
      "æĦı": 1012,
      "è¿ŀ": 1013,
      "ä»į": 1014,
      "åħ¨": 1015,
      "é¢Ħ": 1016,
      "è®¡ç®Ĺ": 1017,
      "ç»ı": 1018,
      "æĹ¶éĹ´": 1019,
      "æ£ĢæŁ¥": 1020,
      "Ġinter": 1021,
      "Ġrem": 1022,
      "ä½İ": 1023,
      "ĠB": 1024,
      "int": 1025,
      "åĨį": 1026,
      "all": 1027,
      "ä¼ł": 1028,
      "ä¸¤": 1029,
      "å¤Ł": 1030,
      "Ġhas": 1031,
      "ä¾ĭ": 1032,
      "Ģä¹Ī": 1033,
      "ç»Ĩ": 1034,
      "ä»Ģä¹Ī": 1035,
      "å¤Ħ": 1036,
      "æīĢ": 1037,
      "Ġke": 1038,
      "QL": 1039,
      "ys": 1040,
      "Ġqu": 1041,
      "Ġca": 1042,
      "ĠO": 1043,
      "åĩĨ": 1044,
      "å¢ŀ": 1045,
      "æ¬¡": 1046,
      "çİ¯": 1047,
      "å±Ĥ": 1048,
      "éĢī": 1049,
      "æĪĲç«ĭ": 1050,
      "äº§": 1051,
      "å¸ĥ": 1052,
      "æ±Ĥ": 1053,
      "ä¹ł": 1054,
      "åģĩ": 1055,
      "äºĨ": 1056,
      "åŃ¦ä¹ł": 1057,
      "ç©¶": 1058,
      "æł¸": 1059,
      "ome": 1060,
      "éĢĤ": 1061,
      "åĩı": 1062,
      "åľºæĻ¯": 1063,
      "very": 1064,
      "çłĶ": 1065,
      "Ġconc": 1066,
      "çłĶç©¶": 1067,
      "ç»Ń": 1068,
      "ç§»": 1069,
      "çī¹": 1070,
      "Ġset": 1071,
      "çķ¥": 1072,
      "å½¢æĪĲ": 1073,
      "ä¼ĺ": 1074,
      "å¼º": 1075,
      "å¾Ģ": 1076,
      "di": 1077,
      "è®°": 1078,
      "Ġman": 1079,
      "Ġgen": 1080,
      "æĢ»": 1081,
      "æıĲ": 1082,
      "Ġthis": 1083,
      "å¯Ł": 1084,
      "æĮģ": 1085,
      "Ġwhereas": 1086,
      "out": 1087,
      "è§Ĥå¯Ł": 1088,
      "ç½ĳ": 1089,
      "éĻĲåĪ¶": 1090,
      "å¥": 1091,
      "çĬ¶æĢģ": 1092,
      "ress": 1093,
      "ten": 1094,
      "ä¹ĭéĹ´": 1095,
      "å¤ĦçĲĨ": 1096,
      "ents": 1097,
      "éħ": 1098,
      "çĽ´": 1099,
      "Ġstruct": 1100,
      "Ġhelps": 1101,
      "è¿Ĳ": 1102,
      "Ġdesc": 1103,
      "ne": 1104,
      "ass": 1105,
      "âĢ": 1106,
      "Ġper": 1107,
      "åĪĨå¸ĥ": 1108,
      "ç¨³å®ļ": 1109,
      "ĠSQL": 1110,
      "åıįåºĶ": 1111,
      "éĽĨ": 1112,
      "ç¤": 1113,
      "åıĤæķ°": 1114,
      "éļıæľº": 1115,
      "th": 1116,
      "Ġpl": 1117,
      "åģĩè®¾": 1118,
      "ther": 1119,
      "åıĳçĶŁ": 1120,
      "å¿ħ": 1121,
      "ä»»åĬ¡": 1122,
      "les": 1123,
      "fect": 1124,
      "gy": 1125,
      "ç§¯": 1126,
      "è·¯": 1127,
      "é£": 1128,
      "éĶĻ": 1129,
      "ugh": 1130,
      "æ³¨": 1131,
      "å·¥": 1132,
      "æģ¯": 1133,
      "Ġar": 1134,
      "Ġtrain": 1135,
      "æ°Ķ": 1136,
      "ution": 1137,
      "è¿ĻäºĽ": 1138,
      "ctions": 1139,
      "ds": 1140,
      "æ´": 1141,
      "Ġcond": 1142,
      "ory": 1143,
      "Ġelect": 1144,
      "ous": 1145,
      "Ġthink": 1146,
      "æĭ©": 1147,
      "ç¤º": 1148,
      "ä¼¼": 1149,
      "ular": 1150,
      "çĽ¸åħ³": 1151,
      "ust": 1152,
      "Ġout": 1153,
      "Ġu": 1154,
      "æĿĤ": 1155,
      "Ġnearb": 1156,
      "åĮºåĪĨ": 1157,
      "Ġnearby": 1158,
      "è¯´": 1159,
      "ell": 1160,
      "éĢīæĭ©": 1161,
      "ç»ľ": 1162,
      "Ġits": 1163,
      "Ġhow": 1164,
      "ically": 1165,
      "æ®": 1166,
      "æŁĲ": 1167,
      "å¤±": 1168,
      "ç½ĳç»ľ": 1169,
      "åĪ©": 1170,
      "è®©": 1171,
      "éĩĮ": 1172,
      "èĥ½å¤Ł": 1173,
      "Ġrec": 1174,
      "Ġcl": 1175,
      "è¯Ń": 1176,
      "åħ·ä½ĵ": 1177,
      "å°±": 1178,
      "Ġdec": 1179,
      "ors": 1180,
      "ä¸ºä»Ģä¹Ī": 1181,
      "æ¦Ĥçİĩ": 1182,
      "æĺŁ": 1183,
      "Ġinc": 1184,
      "éĵ": 1185,
      "Ġab": 1186,
      "itions": 1187,
      "éĻį": 1188,
      "Ġcons": 1189,
      "å¼Ĥ": 1190,
      "éĩįè¦ģ": 1191,
      "ffect": 1192,
      "å§": 1193,
      "ack": 1194,
      "ath": 1195,
      "Ġneed": 1196,
      "è¿ĩç¨ĭ": 1197,
      "æİ§": 1198,
      "çļĦæĺ¯": 1199,
      "Ġredu": 1200,
      "éĿ¢": 1201,
      "Ġchanges": 1202,
      "ä¿¡æģ¯": 1203,
      "ER": 1204,
      "Ġoften": 1205,
      "Ġass": 1206,
      "Ġinto": 1207,
      "Ġmany": 1208,
      "½æķ°": 1209,
      "Ġbeh": 1210,
      "åĩ½æķ°": 1211,
      "Ġdescrib": 1212,
      "çĦ": 1213,
      "åĽ´": 1214,
      "Ġthan": 1215,
      "ures": 1216,
      "Ġsep": 1217,
      "Ġem": 1218,
      "æĸ¹å¼ı": 1219,
      "Ġsepar": 1220,
      "¡æľī": 1221,
      "çĭ": 1222,
      "Ġha": 1223,
      "çĦ¶": 1224,
      "åħ¶": 1225,
      "Ġwork": 1226,
      "ize": 1227,
      "æ²¡æľī": 1228,
      "é¡»": 1229,
      "å¿ħé¡»": 1230,
      "ä¸įæĺ¯": 1231,
      "æį¢": 1232,
      "Ġgra": 1233,
      "è¶³": 1234,
      "è¾¾": 1235,
      "äº§çĶŁ": 1236,
      "è¯Ĩ": 1237,
      "å§ĭ": 1238,
      "ros": 1239,
      "è¶Ĭ": 1240,
      "The": 1241,
      "put": 1242,
      "Ġpar": 1243,
      "èĥŀ": 1244,
      "ç»Ĩèĥŀ": 1245,
      "Ġind": 1246,
      "åīį": 1247,
      "erm": 1248,
      "è¯ķ": 1249,
      "ç©ºéĹ´": 1250,
      "çĭ¬": 1251,
      "çĥ": 1252,
      "arn": 1253,
      "éĵ¾": 1254,
      "Ġtraining": 1255,
      "çŁ¥": 1256,
      "æİ¨": 1257,
      "Ġresult": 1258,
      "ert": 1259,
      "åħ³éĶ®": 1260,
      "å±Ģ": 1261,
      "æł¸å¿ĥ": 1262,
      "Ġche": 1263,
      "ess": 1264,
      "å¯¼": 1265,
      "åħ³ç³»": 1266,
      "å¯¹çħ§": 1267,
      "ç½®": 1268,
      "ergy": 1269,
      "åĽ¾": 1270,
      "è¯¯åĪ¤": 1271,
      "ments": 1272,
      "ph": 1273,
      "èģ": 1274,
      "éĶĻè¯¯": 1275,
      "åĿĩ": 1276,
      "ç²": 1277,
      "Ġsim": 1278,
      "und": 1279,
      "Ġunder": 1280,
      "Ġreg": 1281,
      "éĢŁåº¦": 1282,
      "Ġdet": 1283,
      "æĺ¾": 1284,
      "è¡¨ç¤º": 1285,
      "ä¾ĭå¦Ĥ": 1286,
      "åıĸ": 1287,
      "ä¼°": 1288,
      "åĲĮä¸Ģ": 1289,
      "Ġdire": 1290,
      "Ġfre": 1291,
      "å¤įæĿĤ": 1292,
      "æ¶": 1293,
      "Ġmay": 1294,
      "ject": 1295,
      "Ġstat": 1296,
      "è¡¡": 1297,
      "æ¸©": 1298,
      "åħ±": 1299,
      "ide": 1300,
      "º«": 1301,
      "èº«": 1302,
      "arge": 1303,
      "è§Ĵ": 1304,
      "vel": 1305,
      "ç»ĵè®º": 1306,
      "åĩºçİ°": 1307,
      "Ġnum": 1308,
      "ible": 1309,
      "æ»": 1310,
      "åģı": 1311,
      "Ġact": 1312,
      "Ġspe": 1313,
      "èĩ´": 1314,
      "Ġdistrib": 1315,
      "ight": 1316,
      "Ġobs": 1317,
      "çĽ®": 1318,
      "åħį": 1319,
      "Ġonly": 1320,
      "IN": 1321,
      "Ġcle": 1322,
      "åĪĹ": 1323,
      "Ġmeas": 1324,
      "ative": 1325,
      "ä½ķ": 1326,
      "ime": 1327,
      "ĠW": 1328,
      "ally": 1329,
      "Ġenergy": 1330,
      "é£İ": 1331,
      "Ġkeep": 1332,
      "ms": 1333,
      "Ġover": 1334,
      "Ġprocess": 1335,
      "..": 1336,
      "Ġlearn": 1337,
      "Ġrequire": 1338,
      "Ġstructure": 1339,
      "èĮ": 1340,
      "çĶ¨äºİ": 1341,
      "èĮĥ": 1342,
      "Ġthro": 1343,
      "Ġanal": 1344,
      "ç»Łè®¡": 1345,
      "Ġgener": 1346,
      "æĸ¹åĲĳ": 1347,
      "è¿ĺè¦ģ": 1348,
      "ount": 1349,
      "ĠN": 1350,
      "Ġelectr": 1351,
      "Ġthrough": 1352,
      "ex": 1353,
      "è®¸": 1354,
      "ä¸Ģå®ļ": 1355,
      "ency": 1356,
      "Ġvari": 1357,
      "Ġpart": 1358,
      "æĸĩ": 1359,
      "vers": 1360,
      "formation": 1361,
      "plication": 1362,
      "ç»´": 1363,
      "å¿½": 1364,
      "åĨ³å®ļ": 1365,
      "åı¯ä»¥çĶ¨": 1366,
      "ons": 1367,
      "Ġrep": 1368,
      "åıĺéĩı": 1369,
      "ific": 1370,
      "åŃĺåľ¨": 1371,
      "ç´ł": 1372,
      "è¾ĵåħ¥": 1373,
      "ach": 1374,
      "å»": 1375,
      "ulation": 1376,
      "æ¯ı": 1377,
      "å¿½çķ¥": 1378,
      "usion": 1379,
      "Ġlimits": 1380,
      "ue": 1381,
      "æĶ¶": 1382,
      "Ġappro": 1383,
      "Ġmatter": 1384,
      "ding": 1385,
      "ating": 1386,
      "Ġmet": 1387,
      "åħī": 1388,
      "åĽłæŀľ": 1389,
      "åİŁåĽł": 1390,
      "ater": 1391,
      "åħĥ": 1392,
      "Ġequ": 1393,
      "Ġconst": 1394,
      "Ġchange": 1395,
      "Ġsame": 1396,
      "¢«": 1397,
      "è¢«": 1398,
      "Ġfi": 1399,
      "éĩįå¤į": 1400,
      "To": 1401,
      "æĬ½": 1402,
      "Ġord": 1403,
      "Ġimport": 1404,
      "als": 1405,
      "Ġmis": 1406,
      "éĿŀ": 1407,
      "Ġobserv": 1408,
      "æ¼": 1409,
      "ä¸Ģèµ·": 1410,
      "amet": 1411,
      "Ġdistin": 1412,
      "çĥŃ": 1413,
      "èĥ½éĩı": 1414,
      "åľ¨äºİ": 1415,
      "ä¿®": 1416,
      "ĠE": 1417,
      "ĠP": 1418,
      "ard": 1419,
      "å¼ķ": 1420,
      "ame": 1421,
      "åıĹåĪ°": 1422,
      "SELECT": 1423,
      "ber": 1424,
      "ather": 1425,
      "åĨ³": 1426,
      "Ġexp": 1427,
      "Ġsub": 1428,
      "ually": 1429,
      "çĽ®æłĩ": 1430,
      "ç»Ī": 1431,
      "Ġevery": 1432,
      "Ġconf": 1433,
      "è¯¯åĮº": 1434,
      "çĿ": 1435,
      "Ġopt": 1436,
      "ç®Ģ": 1437,
      "andom": 1438,
      "å¢ŀåĬł": 1439,
      "ross": 1440,
      "Ġrepres": 1441,
      "gn": 1442,
      "æĥħ": 1443,
      "Ġra": 1444,
      "æŀģ": 1445,
      "åİĭ": 1446,
      "Ġloc": 1447,
      "Ġfrequ": 1448,
      "low": 1449,
      "Ġcomple": 1450,
      "æ°´": 1451,
      "åĩıå°ĳ": 1452,
      "te": 1453,
      "ä¸ĢçĤ¹": 1454,
      "uld": 1455,
      "å°Ħ": 1456,
      "åĵª": 1457,
      "Ġconditions": 1458,
      "Ġcor": 1459,
      "Ġer": 1460,
      "éģ¿": 1461,
      "Ġcre": 1462,
      "Ġcell": 1463,
      "åĨħéĥ¨": 1464,
      "Ġimportant": 1465,
      "tic": 1466,
      "éĥ¨åĪĨ": 1467,
      "Ġsetting": 1468,
      "Ġparamet": 1469,
      "fer": 1470,
      "ise": 1471,
      "å®ŀéªĮ": 1472,
      "çľŁå®ŀ": 1473,
      "åĩĨç¡®": 1474,
      "ior": 1475,
      "Ġaut": 1476,
      "Ġdescribes": 1477,
      "ken": 1478,
      "æ³¢": 1479,
      "å±ķ": 1480,
      "Ġseparate": 1481,
      "work": 1482,
      "ential": 1483,
      "æīĢæľī": 1484,
      "Ġoptim": 1485,
      "åĬ¿": 1486,
      "Ġbet": 1487,
      "å·²": 1488,
      "kes": 1489,
      "åı·": 1490,
      "elf": 1491,
      "Ġstrong": 1492,
      "Ġpoint": 1493,
      "æºĲ": 1494,
      "Ġassum": 1495,
      "Ġsm": 1496,
      "Ġstud": 1497,
      "åĪ©çĶ¨": 1498,
      "ould": 1499,
      "åı¦": 1500,
      "äºº": 1501,
      "éĢł": 1502,
      "å¾Ī": 1503,
      "ĠAt": 1504,
      "åŁŁ": 1505,
      "Ġdistinction": 1506,
      "å¿«": 1507,
      "å¯Ĩ": 1508,
      "Ġwhether": 1509,
      "ä¸»è¦ģ": 1510,
      "éģ¿åħį": 1511,
      "Ġsettings": 1512,
      "æ¡": 1513,
      "Ġtest": 1514,
      "Ġwhy": 1515,
      "Ġrandom": 1516,
      "æĶ¾åĪ°": 1517,
      "ou": 1518,
      "ä»·": 1519,
      "è¯¢": 1520,
      "æµĭéĩı": 1521,
      "éħį": 1522,
      "ĠM": 1523,
      "æĺĵ": 1524,
      "oss": 1525,
      "çľĭåĪ°": 1526,
      "ace": 1527,
      "åĤ": 1528,
      "yn": 1529,
      "å¾Ħ": 1530,
      "æŁ¥è¯¢": 1531,
      "fic": 1532,
      "åĮºåĪ«": 1533,
      "ient": 1534,
      "pp": 1535,
      "éªĮè¯ģ": 1536,
      "çłģ": 1537,
      "äºĭå®ŀ": 1538,
      "æĹ¶è¿ĺè¦ģ": 1539,
      "å¤ļä¸ª": 1540,
      "Ġeffect": 1541,
      "oth": 1542,
      "æľ¬èº«": 1543,
      "æ¢": 1544,
      "åĽº": 1545,
      "å¤§éĩı": 1546,
      "ains": 1547,
      "çŁ©": 1548,
      "ä¼ĺåĮĸ": 1549,
      "æ®µ": 1550,
      "Ġnet": 1551,
      "çº§": 1552,
      "è´¨éĩı": 1553,
      "åħ·æľī": 1554,
      "Ġsmall": 1555,
      "å±Ģéĥ¨": 1556,
      "ns": 1557,
      "Ġcol": 1558,
      "ä¸ĢæŃ¥": 1559,
      "åħĪä»İ": 1560,
      "æ¸ħçļĦ": 1561,
      "atically": 1562,
      "åĬ©": 1563,
      "æĸ¹æ³ķ": 1564,
      "ĠSELECT": 1565,
      "ä½ľçĶ¨": 1566,
      "Ġtime": 1567,
      "Ġconcepts": 1568,
      "Ġclean": 1569,
      "èĬ": 1570,
      "Ġinformation": 1571,
      "åĲĳéĩı": 1572,
      "¾Ħ": 1573,
      "ĠD": 1574,
      "ä¸įè¿ĩ": 1575,
      "Ġlarge": 1576,
      "arg": 1577,
      "éģĵ": 1578,
      "ä¸Ģèĩ´": 1579,
      "å¾®": 1580,
      "æģĴ": 1581,
      "å®¹æĺĵ": 1582,
      "ail": 1583,
      "Ġfun": 1584,
      "ä¹ĭåĲİ": 1585,
      "ĠThat": 1586,
      "åĽŀåĪ°": 1587,
      "èĭ": 1588,
      "ĠY": 1589,
      "Ġsur": 1590,
      "ĠAS": 1591,
      "çİ¯å¢ĥ": 1592,
      "ts": 1593,
      "xim": 1594,
      "å£": 1595,
      "Ġest": 1596,
      "Ġser": 1597,
      "Ġdis": 1598,
      "æĬĬå®ĥ": 1599,
      "Ġsee": 1600,
      "å¹³è¡¡": 1601,
      "æĵ": 1602,
      "Ġprov": 1603,
      "Ġcore": 1604,
      "Ġworks": 1605,
      "çĿĢ": 1606,
      "æĪ·": 1607,
      "åĪĨåŃĲ": 1608,
      "è¿Ļä¸Ģ": 1609,
      "è¿Ļæł·çļĦ": 1610,
      "avior": 1611,
      "Ġcleaner": 1612,
      "Ġve": 1613,
      "äºĴ": 1614,
      "çº¦": 1615,
      "æĥ³": 1616,
      "æ¸©åº¦": 1617,
      "Ġanalys": 1618,
      "ç®Ģåįķ": 1619,
      "£ģ": 1620,
      "Ġsol": 1621,
      "Ġmult": 1622,
      "åľ¨ä¸Ģèµ·": 1623,
      "Ġadd": 1624,
      "çº¿æĢ§": 1625,
      "Ġoutc": 1626,
      "Ġitself": 1627,
      "ines": 1628,
      "Ġmind": 1629,
      "é¢Ħæµĭ": 1630,
      ";`": 1631,
      "ging": 1632,
      "ks": 1633,
      "Ġ`": 1634,
      "Ġè§£éĩĬ": 1635,
      "å°º": 1636,
      "ä¸İçĽ¸": 1637,
      "è¿ĻäºĽæ¦Ĥå¿µ": 1638,
      "ĠYou": 1639,
      ";`.": 1640,
      "Ġsign": 1641,
      "ason": 1642,
      "Ġhigh": 1643,
      "å¹¶ä¸įæĺ¯": 1644,
      "Ġbehavior": 1645,
      "ä½įç½®": 1646,
      "èĮĥåĽ´": 1647,
      "Ġrepresent": 1648,
      "Ġno": 1649,
      "æĿĥ": 1650,
      "åħ³æ³¨": 1651,
      "Ġshould": 1652,
      "Ġproble": 1653,
      "çĽ´æİ¥": 1654,
      "con": 1655,
      "ration": 1656,
      "ues": 1657,
      "ose": 1658,
      "æľĢç»Ī": 1659,
      "æĮĩ": 1660,
      "Ġeven": 1661,
      "æ´»": 1662,
      "Ġrepe": 1663,
      "Ġhave": 1664,
      "èĬĤ": 1665,
      "ry": 1666,
      "èį": 1667,
      "ich": 1668,
      "åį³": 1669,
      "Ġrather": 1670,
      "è¿ĳä¼¼": 1671,
      "åĩĨç¡®çļĦ": 1672,
      "å°ºåº¦": 1673,
      "ä»¬": 1674,
      "ase": 1675,
      "å½ķ": 1676,
      "æĦŁ": 1677,
      "inear": 1678,
      "Ġup": 1679,
      "HER": 1680,
      "way": 1681,
      "Ġreason": 1682,
      "åĩł": 1683,
      "è¡¨è¾¾": 1684,
      "æ£ĢéªĮ": 1685,
      "Ġvalid": 1686,
      "å®Įæķ´": 1687,
      "ä¸¤èĢħ": 1688,
      "æĬ½è±¡": 1689,
      "HERE": 1690,
      "ç£ģ": 1691,
      "åĮħ": 1692,
      "çĽ¸åĲĮ": 1693,
      "Ġacc": 1694,
      "è¯´æ³ķ": 1695,
      "Ġerr": 1696,
      "æ¾Ħ": 1697,
      "å®ŀéĻħåĪ¤æĸŃ": 1698,
      "æ¦Ĥå¿µå¯¹çħ§": 1699,
      "éĺµ": 1700,
      "éĻįä½İ": 1701,
      "Ġcheck": 1702,
      "æĥħå¢ĥ": 1703,
      "æĶ¾åĪ°å®ŀéĻħ": 1704,
      "æĹ¶è¿ĺè¦ģæ£ĢæŁ¥": 1705,
      "åĽŀåĪ°æł¸å¿ĥ": 1706,
      "æ¾Ħæ¸ħçļĦ": 1707,
      "fore": 1708,
      "ç¢": 1709,
      "çĻ": 1710,
      "Ġk": 1711,
      "Ġmain": 1712,
      "æĮī": 1713,
      "ĠOne": 1714,
      "å¹³åĿĩ": 1715,
      "Ġincreas": 1716,
      "Ġnetwork": 1717,
      "èĭ¥": 1718,
      "Ġtem": 1719,
      "çİ°è±¡": 1720,
      "èĥĮ": 1721,
      "âĢľ": 1722,
      "âĢĿ": 1723,
      "è·¯å¾Ħ": 1724,
      "cc": 1725,
      "val": 1726,
      "we": 1727,
      "Ġwe": 1728,
      "ä¾Ľ": 1729,
      "Ġcontin": 1730,
      "è®¾è®¡": 1731,
      "Ġpredi": 1732,
      "Ġprobability": 1733,
      "Ġsize": 1734,
      "éĢĲ": 1735,
      "è¿ĺåı¯ä»¥çĶ¨": 1736,
      "æµĭè¯ķ": 1737,
      "Ġmem": 1738,
      "Ġpath": 1739,
      "è´Ł": 1740,
      "çŃĸ": 1741,
      "ç®Ĺæ³ķ": 1742,
      "è¿ŀæİ¥": 1743,
      "Ġam": 1744,
      "Ġspa": 1745,
      "Ġfe": 1746,
      "urren": 1747,
      "Ġmeasure": 1748,
      "ite": 1749,
      "æĸĻ": 1750,
      "ĠAn": 1751,
      "çķĻ": 1752,
      "æ·Ĩ": 1753,
      "æĿ¥èĩª": 1754,
      "æ··æ·Ĩ": 1755,
      "å¥½": 1756,
      "çª": 1757,
      "ature": 1758,
      "åĬŁ": 1759,
      "å¸Į": 1760,
      "Ġscal": 1761,
      "çĶ±æŃ¤": 1762,
      "åħ±åĲĮ": 1763,
      "åĽºå®ļ": 1764,
      "Ġinput": 1765,
      "ç»ĦåĲĪ": 1766,
      "åľºæĻ¯æĺ¯": 1767,
      "åħ·ä½ĵåľºæĻ¯æĺ¯": 1768,
      "æİ§åĪ¶": 1769,
      "ĠWHERE": 1770,
      "lu": 1771,
      "og": 1772,
      "éĤ": 1773,
      "Ġtra": 1774,
      "Ġback": 1775,
      "rol": 1776,
      "äºĮ": 1777,
      "Ġwhich": 1778,
      "å·®å¼Ĥ": 1779,
      "æ»¡": 1780,
      "çŁ©éĺµ": 1781,
      "èĻ": 1782,
      "Ġcomb": 1783,
      "etic": 1784,
      "æĪĲæľ¬": 1785,
      "Ġorder": 1786,
      "åį´": 1787,
      "Ġacross": 1788,
      "Ġproduct": 1789,
      "Ġstatist": 1790,
      "æĵį": 1791,
      "Ġanalysis": 1792,
      "Ġmulti": 1793,
      "§è¡Į": 1794,
      "æ¥": 1795,
      "round": 1796,
      "omes": 1797,
      "Ġnorm": 1798,
      "æī§è¡Į": 1799,
      "ç«¯": 1800,
      "ä¼°è®¡": 1801,
      "ĠG": 1802,
      "inal": 1803,
      "Ġthen": 1804,
      "è¯Ħ": 1805,
      "imens": 1806,
      "éĻ©": 1807,
      "ç§ĳ": 1808,
      "èĢĮä¸įæĺ¯": 1809,
      "è¯¯å·®": 1810,
      "è¿Ľä¸ĢæŃ¥": 1811,
      "Ġdistribution": 1812,
      "æĵįä½ľ": 1813,
      "åľ¨å®ŀéĻħ": 1814,
      "own": 1815,
      "éĽ¶": 1816,
      "è¿ĲåĬ¨": 1817,
      "åĮĸåŃ¦": 1818,
      "Ġmakes": 1819,
      "å¸¸è§ģè¯¯åĮº": 1820,
      "å»º": 1821,
      "Ġlocal": 1822,
      "ty": 1823,
      "æķ°éĩı": 1824,
      "æĿŁ": 1825,
      "åĲİçļĦ": 1826,
      "Ġresults": 1827,
      "èĳ": 1828,
      "Ġph": 1829,
      "Ġoper": 1830,
      "äº¤": 1831,
      "æĽ´æĸ°": 1832,
      "ives": 1833,
      "Ġlevel": 1834,
      "æ¸ħæ¥": 1835,
      "å¾Ģå¾Ģ": 1836,
      "Ġfiel": 1837,
      "æ¸ħæ¥ļ": 1838,
      "ç¾": 1839,
      "row": 1840,
      "çĶµåŃĲ": 1841,
      "æĭŁ": 1842,
      "ç´¢": 1843,
      "ced": 1844,
      "ç»ĩ": 1845,
      "idence": 1846,
      "çĲĥ": 1847,
      "æıĲä¾Ľ": 1848,
      "çĭ¬ç«ĭ": 1849,
      "Ġestim": 1850,
      "ç»Ħç»ĩ": 1851,
      "Ġfrequent": 1852,
      "èĳĹ": 1853,
      "ĠR": 1854,
      "atch": 1855,
      "ç»Ļ": 1856,
      "å½Ĵ": 1857,
      "Ġcontrol": 1858,
      "æĺ¾èĳĹ": 1859,
      "é£İéĻ©": 1860,
      "Ġcomplex": 1861,
      "æĴ": 1862,
      "Ġlow": 1863,
      "æł¡": 1864,
      "ä¼ļæĽ´": 1865,
      "Ġsystems": 1866,
      "ertain": 1867,
      "èģĶ": 1868,
      "Ġdeterm": 1869,
      "Ġupd": 1870,
      "Ġsens": 1871,
      "ä¿¡åı·": 1872,
      "ĠBY": 1873,
      "ves": 1874,
      "Ġpos": 1875,
      "èĢĥ": 1876,
      "å¾ģ": 1877,
      "èĩªåĬ¨": 1878,
      "Ġmodels": 1879,
      "ä¿ĿæĮģ": 1880,
      "Ġautom": 1881,
      "Ġrepeated": 1882,
      "ffic": 1883,
      "ub": 1884,
      "Ġag": 1885,
      "ord": 1886,
      "Ġocc": 1887,
      "otential": 1888,
      "Ġsequ": 1889,
      "ĠH": 1890,
      "è¿½": 1891,
      "è¿ģ": 1892,
      "ized": 1893,
      "åģļ": 1894,
      "èµĦ": 1895,
      "æ°§": 1896,
      "çī¹å¾ģ": 1897,
      "ye": 1898,
      "Ġrate": 1899,
      "ç¡®å®ļ": 1900,
      "ç¼ĵ": 1901,
      "Ġperform": 1902,
      "Ġapproxim": 1903,
      "Ġparameters": 1904,
      "æ»¡è¶³": 1905,
      "ip": 1906,
      "ision": 1907,
      "Ġinf": 1908,
      "åŃĹ": 1909,
      "åĲĮæł·": 1910,
      "è§Ĥå¯Łç»ĵæŀľ": 1911,
      "å±ķå¼Ģ": 1912,
      "æ¢¯": 1913,
      "Ġsp": 1914,
      "åºĵ": 1915,
      "Ġsto": 1916,
      "Ġsample": 1917,
      "Ġproduce": 1918,
      "ast": 1919,
      "epend": 1920,
      "Ġusers": 1921,
      "æİ¥è¿ĳ": 1922,
      "çŁ¥è¯Ĩ": 1923,
      "æľª": 1924,
      "æł¹": 1925,
      "Ġcost": 1926,
      "ä½ľä¸º": 1927,
      "éĺ¶": 1928,
      "æķ´ä½ĵ": 1929,
      "å®Įåħ¨": 1930,
      "Ġlearning": 1931,
      "éĢłæĪĲ": 1932,
      "ĠJ": 1933,
      "ish": 1934,
      "Ġpotential": 1935,
      "Ġstart": 1936,
      "æķ°åĢ¼": 1937,
      "åĨĻ": 1938,
      "æįŁ": 1939,
      "Ġcomput": 1940,
      "Ġspec": 1941,
      "'s": 1942,
      "NA": 1943,
      "cing": 1944,
      "Ġway": 1945,
      "Ġconsist": 1946,
      "è®¸å¤ļ": 1947,
      "ious": 1948,
      "lec": 1949,
      "omet": 1950,
      "æī¾": 1951,
      "çĶŁæĪĲ": 1952,
      "ç¡Ģ": 1953,
      "çī©ä½ĵ": 1954,
      "éģĹ": 1955,
      "åŁºç¡Ģ": 1956,
      "ä¸»é¢ĺ": 1957,
      "Ġconcl": 1958,
      "Ġcorre": 1959,
      "Ġbetwe": 1960,
      "Ġbetween": 1961,
      "bit": 1962,
      "Ġpr": 1963,
      "Ġlinear": 1964,
      "æº¶": 1965,
      "Ġreduce": 1966,
      "Ġspace": 1967,
      "Ġautomatically": 1968,
      "ependent": 1969,
      "Ġdi": 1970,
      "æĢ§è´¨": 1971,
      "arth": 1972,
      "æķĪåºĶ": 1973,
      "ä¹ĭéĹ´çļĦ": 1974,
      "ç²¾": 1975,
      "åĤ¨": 1976,
      "Ġfunction": 1977,
      "OIN": 1978,
      "gth": 1979,
      "ä¸Ķ": 1980,
      "Ġstable": 1981,
      "Ġmake": 1982,
      "plo": 1983,
      "Ġcho": 1984,
      "è®°å½ķ": 1985,
      "ways": 1986,
      "èī": 1987,
      "Ġtre": 1988,
      "è§ī": 1989,
      "Ġext": 1990,
      "è½¨": 1991,
      "çī©è´¨": 1992,
      "Ġmeth": 1993,
      "ä¼ļæĽ´æ¸ħæ¥ļ": 1994,
      "æ¢¯åº¦": 1995,
      "åıĬ": 1996,
      "led": 1997,
      "æŃ£ç¡®": 1998,
      "åıªæĺ¯": 1999,
      "Ġusually": 2000,
      "åĬĽåŃ¦": 2001,
      "é¡º": 2002,
      "å¤©": 2003,
      "å¸¦": 2004,
      "izes": 2005,
      "å¾ĹåĪ°": 2006,
      "not": 2007,
      "red": 2008,
      "å¾ĭ": 2009,
      "Ġnew": 2010,
      "æĶ¾åĽŀ": 2011,
      "Ġmethod": 2012,
      "åĲ«": 2013,
      "çĲĨæĥ³": 2014,
      "è¿ĺä¼ļ": 2015,
      "perature": 2016,
      "Ġobject": 2017,
      "çº¦æĿŁ": 2018,
      "ç¾¤": 2019,
      "fter": 2020,
      "ases": 2021,
      "èĥ½åĬĽ": 2022,
      "ram": 2023,
      "é¢Ŀ": 2024,
      "æİĴ": 2025,
      "åĵĪ": 2026,
      "è¯ģæį®": 2027,
      "Ġclass": 2028,
      "imension": 2029,
      "ward": 2030,
      "Ġaver": 2031,
      "ull": 2032,
      "Ġcannot": 2033,
      "Ġident": 2034,
      "Ġapplication": 2035,
      "ç¼©": 2036,
      "Ġoutcome": 2037,
      "è¿ģç§»": 2038,
      "é¡ºåºı": 2039,
      "city": 2040,
      "³çĿĢ": 2041,
      "Ġ=": 2042,
      "Ġrea": 2043,
      "Ġexper": 2044,
      "éĶģ": 2045,
      "ä¹ĭä¸Ģ": 2046,
      "åĳ³çĿĢ": 2047,
      "æĦıåĳ³çĿĢ": 2048,
      "Ġneeds": 2049,
      "åĵĪå¸Į": 2050,
      "åĪĴ": 2051,
      "Ġbi": 2052,
      "è§Ĩ": 2053,
      "éĢĴ": 2054,
      "æµ·": 2055,
      "Ġexam": 2056,
      "ples": 2057,
      "è¿ŀç»Ń": 2058,
      "æ¶Ī": 2059,
      "Ġvect": 2060,
      "TP": 2061,
      "ood": 2062,
      "wo": 2063,
      "Ġmin": 2064,
      "Ġmust": 2065,
      "ities": 2066,
      "çĶ¨æĪ·": 2067,
      "å¼Ģå§ĭ": 2068,
      "å¥Ĺ": 2069,
      "å£°": 2070,
      "Ġnormal": 2071,
      "ç§ĳåŃ¦": 2072,
      "sc": 2073,
      "Ġpres": 2074,
      "arch": 2075,
      "ices": 2076,
      "Ġstate": 2077,
      "é¢ĳ": 2078,
      "éĩįæĸ°": 2079,
      "Ġran": 2080,
      "è¿Ļä¸ªä¸»é¢ĺ": 2081,
      "èµ·æĿ¥": 2082,
      "åĽłæŀľéĵ¾": 2083,
      "Ġorders": 2084,
      "çªģ": 2085,
      "èī²": 2086,
      "In": 2087,
      "tern": 2088,
      "Ġcompare": 2089,
      "å¹¶ä¸įæĢ»": 2090,
      "åŁºåĽł": 2091,
      "ynam": 2092,
      "LL": 2093,
      "ULL": 2094,
      "Ġname": 2095,
      "æĿĲ": 2096,
      "æĭ¬": 2097,
      "åįķçĭ¬": 2098,
      "åºıåĪĹ": 2099,
      "Ġerror": 2100,
      "reg": 2101,
      "Ġunc": 2102,
      "åİŁåŃĲ": 2103,
      "è¾ĵåĩº": 2104,
      "éĢĤåĲĪ": 2105,
      "ĠJOIN": 2106,
      "æĿĲæĸĻ": 2107,
      "oint": 2108,
      "yp": 2109,
      "ĠU": 2110,
      "Ġj": 2111,
      "uring": 2112,
      "æī¹": 2113,
      "æ¦Ĥå¿µåĮºåĪĨ": 2114,
      "Ġsuch": 2115,
      "Ġremain": 2116,
      "æļ": 2117,
      "èİ": 2118,
      "Ġcent": 2119,
      "ç»ķ": 2120,
      "Ġevidence": 2121,
      "Ġpartic": 2122,
      "Ġtemperature": 2123,
      "Ġsequence": 2124,
      "èİ·": 2125,
      "eg": 2126,
      "Ġent": 2127,
      "Ġav": 2128,
      "Ġtwo": 2129,
      "Ġmass": 2130,
      "ä»ĸ": 2131,
      "Ġboth": 2132,
      "Ġfind": 2133,
      "æĪĳ": 2134,
      "ules": 2135,
      "Ġmolec": 2136,
      "Ġdef": 2137,
      "éķ¿æľŁ": 2138,
      "ĠCO": 2139,
      "çľŁæŃ£": 2140,
      "Ġcaus": 2141,
      "Ġplan": 2142,
      "åıĳçĶŁåıĺåĮĸ": 2143,
      "Ġlong": 2144,
      "ides": 2145,
      "Ġvol": 2146,
      "å¤§å°ı": 2147,
      "ading": 2148,
      "Ġdesign": 2149,
      "Ġallow": 2150,
      "éĤ»": 2151,
      "çĸ": 2152,
      "ang": 2153,
      "ural": 2154,
      "Ġrelations": 2155,
      "Ġartic": 2156,
      "Ġserious": 2157,
      "Ġoccur": 2158,
      "Ġafter": 2159,
      "æĢ§èĥ½": 2160,
      "çĽ¸äºĴ": 2161,
      "ä»İèĢĮ": 2162,
      "è¯ģæĺİ": 2163,
      "ä¹Łåı¯èĥ½": 2164,
      "ound": 2165,
      "Ġabout": 2166,
      "åħ¶ä»ĸ": 2167,
      "æ¯ıä¸ª": 2168,
      "Ġuncertain": 2169,
      "op": 2170,
      "Ġret": 2171,
      "ational": 2172,
      "ä¸įä¼ļ": 2173,
      "åı¯è§Ĥå¯Łç»ĵæŀľ": 2174,
      "éļ¾": 2175,
      "è½¨éģĵ": 2176,
      "Ġtas": 2177,
      "æŀ¶": 2178,
      "Ġmatters": 2179,
      "Ġcontinu": 2180,
      "Ġconclusion": 2181,
      "NT": 2182,
      "UNT": 2183,
      "gan": 2184,
      "ground": 2185,
      "Ġris": 2186,
      "è¡¨éĿ¢": 2187,
      "Ġuser": 2188,
      "è·Ŀ": 2189,
      "Ġpop": 2190,
      "è¯ĨåĪ«": 2191,
      "Ġindependent": 2192,
      "ention": 2193,
      "Ġlay": 2194,
      "Ġgu": 2195,
      "ivity": 2196,
      "åĵªäºĽ": 2197,
      "fficient": 2198,
      "ploye": 2199,
      "æĪĳä»¬": 2200,
      "tal": 2201,
      "Ġz": 2202,
      "å¤ª": 2203,
      "è¯»": 2204,
      "ä¸ºäºĨ": 2205,
      "str": 2206,
      "ember": 2207,
      "è¯¯è§£": 2208,
      "Ġmean": 2209,
      "è¡Įä¸º": 2210,
      "çŁŃ": 2211,
      "Ġrot": 2212,
      "Ġremember": 2213,
      "æĢ»ä½ĵ": 2214,
      "æŁĲä¸ª": 2215,
      "Ġemploye": 2216,
      "ĠNULL": 2217,
      "æ¦Ĥå¿µåĮºåĪĨå¼Ģ": 2218,
      "Ġrelationsh": 2219,
      "de": 2220,
      "face": 2221,
      "ply": 2222,
      "ä¸ļ": 2223,
      "ality": 2224,
      "Ġmot": 2225,
      "Ġconver": 2226,
      "other": 2227,
      "ç»ĦæĪĲ": 2228,
      "ä¸¤ä¸ª": 2229,
      "Ġcapa": 2230,
      "çĽ´è§ī": 2231,
      "Ġneeded": 2232,
      "ext": 2233,
      "Token": 2234,
      "ä¸ĢçĤ¹æĺ¯": 2235,
      "åı¦å¤ĸ": 2236,
      "ĠAny": 2237,
      "oc": 2238,
      "å²": 2239,
      "ç»§": 2240,
      "Ġloss": 2241,
      "Ġresp": 2242,
      "ä¿Ŀè¯ģ": 2243,
      "æĹłæ³ķ": 2244,
      "æģĴæĺŁ": 2245,
      "Ġexperim": 2246,
      "gor": 2247,
      "up": 2248,
      "®åĬ©": 2249,
      "åı¥": 2250,
      "è¯į": 2251,
      "å¸®åĬ©": 2252,
      "å®ŀéĻħä¸Ĭ": 2253,
      "Ġdepart": 2254,
      "å¼ºè°ĥ": 2255,
      "Ġcreate": 2256,
      "Ġstarting": 2257,
      "cle": 2258,
      "åĪĿ": 2259,
      "Ġder": 2260,
      "Ġthere": 2261,
      "æł¼": 2262,
      "ä¸ºä¸Ģ": 2263,
      "ç»ĵåĲĪ": 2264,
      "Ġprog": 2265,
      "Ġmagn": 2266,
      "åģľ": 2267,
      "Ġwithout": 2268,
      "è¯´æĺİ": 2269,
      "ç²Ĵ": 2270,
      "Ġreasoning": 2271,
      "Ġsome": 2272,
      "rop": 2273,
      "cean": 2274,
      "åĪĨè§£": 2275,
      "Ġexpl": 2276,
      "çĶµåĬ¿": 2277,
      "çİ°å®ŀ": 2278,
      "Ġinteg": 2279,
      "æıĲé«ĺ": 2280,
      "åģıå·®": 2281,
      "Ġobserved": 2282,
      "¢å¤į": 2283,
      "æĺł": 2284,
      "æģ¢å¤į": 2285,
      "plications": 2286,
      "Ġvalue": 2287,
      "Ġvalues": 2288,
      "éĩįè¦ģçļĦ": 2289,
      "Ġgradi": 2290,
      "Ġbackground": 2291,
      "èµĦæºĲ": 2292,
      "è®¤": 2293,
      "åı¯è§ģ": 2294,
      "Ġli": 2295,
      "çĽ¸å¯¹": 2296,
      "pect": 2297,
      "ç§¯åĪĨ": 2298,
      "èģļ": 2299,
      "çŃĸçķ¥": 2300,
      "Ġperformance": 2301,
      "ĠCOUNT": 2302,
      "åĥ": 2303,
      "ç¥": 2304,
      "its": 2305,
      "Ġeach": 2306,
      "Ġorgan": 2307,
      "ifi": 2308,
      "è°Ī": 2309,
      "ç¨ĭåºı": 2310,
      "éĿł": 2311,
      "æĻ®": 2312,
      "Ġapplications": 2313,
      "æ··ä¸ºä¸Ģ": 2314,
      "ä¼łæĴ": 2315,
      "Ġhapp": 2316,
      "ç¼ĵåŃĺ": 2317,
      "èİ·å¾Ĺ": 2318,
      "å²©": 2319,
      "åĥı": 2320,
      "æ··ä¸ºä¸Ģè°Ī": 2321,
      "ä¼łæĴŃ": 2322,
      "æľį": 2323,
      "Ġother": 2324,
      "Ġintu": 2325,
      "å·¥ç¨ĭ": 2326,
      "éģĹä¼ł": 2327,
      "çĹ": 2328,
      "Ġ(": 2329,
      "è¿ľ": 2330,
      "åħ¬": 2331,
      "ä½ı": 2332,
      "ä½Ļ": 2333,
      "éĩĩ": 2334,
      "éĻ¤": 2335,
      "æķ°æį®åºĵ": 2336,
      "irc": 2337,
      "Ġquant": 2338,
      "æ°§åĮĸ": 2339,
      "Ġintuition": 2340,
      "UP": 2341,
      "Ġcal": 2342,
      "arant": 2343,
      "Ġbal": 2344,
      "Ġtheir": 2345,
      "å¾ª": 2346,
      "ables": 2347,
      "Ġgre": 2348,
      "ression": 2349,
      "åĮºåĪĨçļĦæĺ¯": 2350,
      "åĽ´ç»ķ": 2351,
      "Ġmisle": 2352,
      "çĻ½": 2353,
      "Ġproducts": 2354,
      "Ġfield": 2355,
      "ĠUn": 2356,
      "Ġguarant": 2357,
      "Ġguarante": 2358,
      "ec": 2359,
      "Ġanother": 2360,
      "ä¸įç¡®å®ļ": 2361,
      "ä¼ļè®©": 2362,
      "éľĢè¦ģåħĪ": 2363,
      "ç¨ĭåº¦": 2364,
      "åĢ¼å¾Ĺ": 2365,
      "è¿Ľè¡Į": 2366,
      "æīĢä»¥": 2367,
      "Ġaverage": 2368,
      "lection": 2369,
      "Ġsup": 2370,
      "å½¢å¼ı": 2371,
      "Ġprec": 2372,
      "è¿Ĳè¡Į": 2373,
      "æŁĲäºĽ": 2374,
      "Ġdirection": 2375,
      "ä¿®æŃ£": 2376,
      "ä¸Ģèĩ´æĢ§": 2377,
      "Ġinflu": 2378,
      "è·Ŀç¦»": 2379,
      "ģè®¸": 2380,
      "åħģè®¸": 2381,
      "Ġins": 2382,
      "ä¸įåºĶ": 2383,
      "Ġge": 2384,
      "å¹¶ä¸įä¸Ģå®ļ": 2385,
      "Ġused": 2386,
      "é¡¹": 2387,
      "å¸¸è§ģçļĦ": 2388,
      "ä»£è¡¨": 2389,
      "è§Ħæ¨¡": 2390,
      "Ġproblems": 2391,
      "èĥĮåĲİçļĦ": 2392,
      "Ġmotion": 2393,
      "ç¥ŀ": 2394,
      "ires": 2395,
      "ç¬": 2396,
      "Ġcirc": 2397,
      "çļĦå½±åĵį": 2398,
      "åĲį": 2399,
      "ĠAs": 2400,
      "åı¯ä»¥åħĪ": 2401,
      "æŃ£åĽłä¸º": 2402,
      "Ġrequires": 2403,
      "Ġassume": 2404,
      "ç¢³": 2405,
      "Ġamount": 2406,
      "æįŁå¤±": 2407,
      "Ġuncertainty": 2408,
      "ç»§ç»Ń": 2409,
      "å¾ªçİ¯": 2410,
      "ç¥ŀç»ı": 2411,
      "inary": 2412,
      "åĮºåŁŁ": 2413,
      "å¦Ĥä½ķ": 2414,
      "ractical": 2415,
      "éĺ³": 2416,
      "è¿ĳæ¦Ĥå¿µ": 2417,
      "æľºåĪ¶æĺ¯": 2418,
      "ROUP": 2419,
      "éĽĨåĲĪ": 2420,
      "å®¹æĺĵåĩºçİ°": 2421,
      "Ġsurface": 2422,
      "ä¸İçĽ¸è¿ĳæ¦Ĥå¿µ": 2423,
      "åľ¨å®ŀéĻħåľºæĻ¯": 2424,
      "æł¹æį®": 2425,
      "Ġhappens": 2426,
      "ran": 2427,
      "Ġaffect": 2428,
      "ero": 2429,
      "ars": 2430,
      "Ġbu": 2431,
      "pling": 2432,
      "è¿ĺåºĶ": 2433,
      "æ·±": 2434,
      "ç±»åĪ«": 2435,
      "åŃ¦ä¹łçİĩ": 2436,
      "Ġelectric": 2437,
      "ĠGROUP": 2438,
      "æľįåĬ¡": 2439,
      "nect": 2440,
      "ret": 2441,
      "ined": 2442,
      "è¯Ŀ": 2443,
      "Ġstep": 2444,
      "idual": 2445,
      "æľīçĶ¨": 2446,
      "Ġbecomes": 2447,
      "ptions": 2448,
      "åĩºåıĳ": 2449,
      "Ġdistribut": 2450,
      "Ġvalidation": 2451,
      "Ġkn": 2452,
      "å¾Ģå¾Ģæĺ¯": 2453,
      "è¿ĺä¼ļåıĹåĪ°": 2454,
      "Ġmisleading": 2455,
      "ĠUnder": 2456,
      "ap": 2457,
      "uch": 2458,
      "èĤ": 2459,
      "èĽ": 2460,
      "ĭçĻ½": 2461,
      "æľĽ": 2462,
      "Ġwater": 2463,
      "æķ£": 2464,
      "åħ³äºİ": 2465,
      "æľºåĻ¨": 2466,
      "ä¹ĭæīĢä»¥": 2467,
      "è§£éĩĬäºĨ": 2468,
      "è§ĦåĪĻ": 2469,
      "ç¨³å®ļæĢ§": 2470,
      "Ġcondition": 2471,
      "Ġmemory": 2472,
      "å¥ĹçĶ¨": 2473,
      "èĽĭçĻ½": 2474,
      "ips": 2475,
      "erical": 2476,
      "omp": 2477,
      "çĽ¸æ¯Ķ": 2478,
      "cks": 2479,
      "çī©çĲĨ": 2480,
      "çĲĨè§£ä¸º": 2481,
      "è¶ħ": 2482,
      "æ³¨æĦı": 2483,
      "Ġbehind": 2484,
      "åıĸåĨ³": 2485,
      "åħĥç´ł": 2486,
      "Ġstrongly": 2487,
      "åıĸåĨ³äºİ": 2488,
      "gen": 2489,
      "åĲ¸": 2490,
      "Ġbound": 2491,
      "å¿ĺ": 2492,
      "Ġexist": 2493,
      "æľĢä¼ĺ": 2494,
      "ä¸ĭéĻį": 2495,
      "æº¯": 2496,
      "æ¯Ķè¾ĥæĹ¶": 2497,
      "ä»»åĬ¡ä¸Ń": 2498,
      "Ġcorrect": 2499,
      "æĻ®éĢļ": 2500,
      "li": 2501,
      "æħ": 2502,
      "itive": 2503,
      "çļĦåİŁåĽł": 2504,
      "Ġthey": 2505,
      "Ġfil": 2506,
      "æŃ¢": 2507,
      "ä¸ŃæľĢ": 2508,
      "æľīéĻĲ": 2509,
      "åįı": 2510,
      "rix": 2511,
      "Ġdeep": 2512,
      "Ġuses": 2513,
      "äºĭä»¶": 2514,
      "Ġhash": 2515,
      "Ġquer": 2516,
      "Ġgraph": 2517,
      "Ġdirect": 2518,
      "Ġnumber": 2519,
      "èĻĳ": 2520,
      "Ġrelationships": 2521,
      "ç²ĴåŃĲ": 2522,
      "ral": 2523,
      "ªå£°": 2524,
      "one": 2525,
      "Ġmuch": 2526,
      "Ġduring": 2527,
      "Ġconnect": 2528,
      "åºĶå½ĵ": 2529,
      "æī©": 2530,
      "æľĢéĩįè¦ģçļĦ": 2531,
      "è¡¨æĺİ": 2532,
      "éļĶ": 2533,
      "åĻªå£°": 2534,
      "åĨħåŃĺ": 2535,
      "æĹłæĿ¡ä»¶": 2536,
      "neath": 2537,
      "ĠPractical": 2538,
      "åĮħåĲ«": 2539,
      "èĢĥèĻĳ": 2540,
      "éĺ¶æ®µ": 2541,
      "bed": 2542,
      "mun": 2543,
      "name": 2544,
      "åıł": 2545,
      "alary": 2546,
      "è¿«": 2547,
      "arly": 2548,
      "æĸ¹å·®": 2549,
      "éļľ": 2550,
      "éĥ½ä¼ļ": 2551,
      "iron": 2552,
      "è°ĥæķ´": 2553,
      "ĠBut": 2554,
      "åĮºåĪ«åľ¨äºİ": 2555,
      "Ġsense": 2556,
      "è§£éĩĬäºĨä¸ºä»Ģä¹Ī": 2557,
      "Ġinv": 2558,
      "Ġtotal": 2559,
      "è¦ģæ±Ĥ": 2560,
      "çĶŁçī©": 2561,
      "æľĢåħ³éĶ®": 2562,
      "çĲĨè§£è¿Ļç§į": 2563,
      "ç¼ĸ": 2564,
      "çī¹å®ļ": 2565,
      "Ġcells": 2566,
      "ä¸ºäºĨéģ¿åħį": 2567,
      "Ġderiv": 2568,
      "ä¸ŃæľĢå¸¸è§ģçļĦ": 2569,
      "è¿«ä½¿": 2570,
      "æľĢåħ³éĶ®çļĦ": 2571,
      "bers": 2572,
      "me": 2573,
      "viron": 2574,
      "ength": 2575,
      "ä¹ĺ": 2576,
      "æĺ¯å¿ĺ": 2577,
      "æłĳ": 2578,
      "è¿ĻåĲĮæł·": 2579,
      "è¿Ļè¡¨æĺİ": 2580,
      "è¦ģçĲĨè§£è¿Ļç§į": 2581,
      "çĲĨè®º": 2582,
      "æĬĬç»ĵè®º": 2583,
      "æĬĬè¿ĻäºĽæ¦Ĥå¿µ": 2584,
      "æĶ¯": 2585,
      "åı¯ä»¥åħĪä»İ": 2586,
      "åı¯ä»¥æĬĬå®ĥ": 2587,
      "Ġmove": 2588,
      "æĽ´åĩĨç¡®çļĦ": 2589,
      "ä¸İçĽ¸åħ³": 2590,
      "èĢĮè¿Ļç§į": 2591,
      "èĢĮå®ŀéĻħä¸Ĭ": 2592,
      "éľĢè¦ģåĽŀåĪ°æł¸å¿ĥ": 2593,
      "æľĢéľĢè¦ģåħĪ": 2594,
      "ä¸Ģä¸ªå¸¸è§ģ": 2595,
      "å®ŀéĻħä½¿çĶ¨": 2596,
      "ä»İå®ļä¹ī": 2597,
      "çľĭåºĶçĶ¨": 2598,
      "æŃ¤å¤ĸ": 2599,
      "æĿ¡ä»¶éĻĲåĪ¶": 2600,
      "æĿ¡ä»¶å¹¶ä¸įæĢ»": 2601,
      "çĲĨè§£åºĶå½ĵ": 2602,
      "ç»ĵæŀľè¿ĺä¼ļåıĹåĪ°": 2603,
      "æĶ¾åľ¨ä¸Ģèµ·": 2604,
      "åĪ«æĬĬè¿ĻäºĽæ¦Ĥå¿µ": 2605,
      "æĸ°æĥħå¢ĥ": 2606,
      "ä¹ŁæŃ£åĽłä¸º": 2607,
      "åĪĨæŀĲç»ĵæŀľè¿ĺä¼ļåıĹåĪ°": 2608,
      "Ġevent": 2609,
      "è¿Ļæł·ä¸ĢçĤ¹": 2610,
      "è¿Ļä¸ªäºĭå®ŀ": 2611,
      "åıĹæĿ¡ä»¶éĻĲåĪ¶": 2612,
      "æ··åľ¨ä¸Ģèµ·": 2613,
      "åºĶçĶ¨ä¸ºä»Ģä¹Ī": 2614,
      "åºĶçĶ¨èĥĮåĲİçļĦ": 2615,
      "å½ĵæĬĬç»ĵè®º": 2616,
      "å¦Ĥæŀľå¿½çķ¥": 2617,
      "ĠCare": 2618,
      "åľ°çĲĥ": 2619,
      "æ¯Ķè¾ĥè¾¹çķĮ": 2620,
      "æ¯Ķè¾ĥä¹ĭåĲİ": 2621,
      "ä»įåıĹæĿ¡ä»¶éĻĲåĪ¶": 2622,
      "åĨįçľĭåºĶçĶ¨": 2623,
      "è®°è¿Ļæł·ä¸ĢçĤ¹": 2624,
      "å°±å®¹æĺĵåĩºçİ°": 2625,
      "æ²¡æľīçľĭåĪ°": 2626,
      "åħ³éĶ®åĽłæŀľéĵ¾": 2627,
      "è¯¯åĪ¤æĺ¯": 2628,
      "è¯¯åĪ¤ä¹ĭä¸Ģ": 2629,
      "è¯¯åĪ¤çļĦåİŁåĽł": 2630,
      "ä¾ĭå¦Ĥåľ¨å®ŀéĻħåľºæĻ¯": 2631,
      "çĶ¨äºİæĸ°æĥħå¢ĥ": 2632,
      "åİŁåĽłæĹ¶": 2633,
      "Ġconstrain": 2634,
      "Ġconfusion": 2635,
      "åĨħéĥ¨æľºåĪ¶": 2636,
      "å·²ç»ı": 2637,
      "ä¸»è¦ģæľºåĪ¶æĺ¯": 2638,
      "åĮºåĪ«ä¹ĭæīĢä»¥": 2639,
      "ä¸įè¿ĩå®ŀéĻħåĪ¤æĸŃ": 2640,
      "ä¸įè¿ĩåĪĨæŀĲç»ĵæŀľè¿ĺä¼ļåıĹåĪ°": 2641,
      "æĬĬå®ĥä¸İçĽ¸åħ³": 2642,
      "è¿Ļæł·çļĦè¯¯è§£": 2643,
      "è¿ĻäºĽæ¦Ĥå¿µä¸įåºĶ": 2644,
      "è¯´æ³ķæĺ¯": 2645,
      "æĶ¾åĪ°å®ŀéĻħä»»åĬ¡ä¸Ń": 2646,
      "æĹ¶è¿ĺè¦ģæ£ĢæŁ¥éĻĲåĪ¶": 2647,
      "æ¾Ħæ¸ħçļĦè¯´æ³ķæĺ¯": 2648,
      "Ġpredict": 2649,
      "è¿½æº¯": 2650,
      "åģļæ¦Ĥå¿µå¯¹çħ§": 2651,
      "æ»¡è¶³çĲĨæĥ³": 2652,
      "éĢłæĪĲçĽ´è§ī": 2653,
      "åįķçĭ¬å®ļä¹ī": 2654,
      "Ġzero": 2655,
      "åı¦å¤ĸåĪ«æĬĬè¿ĻäºĽæ¦Ĥå¿µ": 2656,
      "gorith": 2657,
      "çİ°å®ŀæĿ¡ä»¶å¹¶ä¸įæĢ»": 2658,
      "ä¸İçĽ¸è¿ĳæ¦Ĥå¿µæĶ¾åľ¨ä¸Ģèµ·": 2659,
      "è¿ĺåºĶæĬĬå®ĥä¸İçĽ¸åħ³": 2660,
      "å¾Ģå¾Ģæĺ¯æ²¡æľīçľĭåĪ°": 2661,
      "ĠUnderneath": 2662,
      "å¥ĹçĶ¨éĶĻè¯¯": 2663,
      "æľĢéĩįè¦ģçļĦåĮºåĪ«åľ¨äºİ": 2664,
      "éļĶç¦»": 2665,
      "ä¸ºäºĨéģ¿åħįå¥ĹçĶ¨éĶĻè¯¯": 2666,
      "ä¸ŃæľĢå¸¸è§ģçļĦè¯¯åĪ¤ä¹ĭä¸Ģ": 2667,
      "æľĢåħ³éĶ®çļĦä¸ĢçĤ¹æĺ¯": 2668,
      "æĺ¯å¿ĺè®°è¿Ļæł·ä¸ĢçĤ¹": 2669,
      "è¿ĻåĲĮæł·è§£éĩĬäºĨä¸ºä»Ģä¹Ī": 2670,
      "è¿Ļè¡¨æĺİè¿ĻäºĽæ¦Ĥå¿µä¸įåºĶ": 2671,
      "è¦ģçĲĨè§£è¿Ļç§įåºĶçĶ¨ä¸ºä»Ģä¹Ī": 2672,
      "åı¯ä»¥åħĪä»İè¿Ļä¸ªäºĭå®ŀ": 2673,
      "åı¯ä»¥æĬĬå®ĥçĲĨè§£ä¸º": 2674,
      "æĽ´åĩĨç¡®çļĦçĲĨè§£åºĶå½ĵ": 2675,
      "èĢĮè¿Ļç§įåĮºåĪ«ä¹ĭæīĢä»¥": 2676,
      "éľĢè¦ģåĽŀåĪ°æł¸å¿ĥæ¦Ĥå¿µ": 2677,
      "æľĢéľĢè¦ģåħĪæ¾Ħæ¸ħçļĦè¯´æ³ķæĺ¯": 2678,
      "ä¸Ģä¸ªå¸¸è§ģè¯¯åĪ¤æĺ¯": 2679,
      "å®ŀéĻħä½¿çĶ¨ä¸ŃæľĢå¸¸è§ģçļĦè¯¯åĪ¤ä¹ĭä¸Ģ": 2680,
      "ä»İå®ļä¹īå¼Ģå§ĭ": 2681,
      "ä¹ŁæŃ£åĽłä¸ºè¿Ļæł·": 2682,
      "åºĶçĶ¨èĥĮåĲİçļĦä¸»è¦ģæľºåĪ¶æĺ¯": 2683,
      "å½ĵæĬĬç»ĵè®ºçĶ¨äºİæĸ°æĥħå¢ĥ": 2684,
      "å¦Ĥæŀľå¿½çķ¥æ¯Ķè¾ĥè¾¹çķĮ": 2685,
      "æ¯Ķè¾ĥä¹ĭåĲİåĨįçľĭåºĶçĶ¨": 2686,
      "å°±å®¹æĺĵåĩºçİ°è¿Ļæł·çļĦè¯¯è§£": 2687,
      "è¯¯åĪ¤çļĦåİŁåĽłå¾Ģå¾Ģæĺ¯æ²¡æľīçľĭåĪ°": 2688,
      "ä¾ĭå¦Ĥåľ¨å®ŀéĻħåľºæĻ¯ä¸Ń": 2689,
      "ä¸įè¿ĩå®ŀéĻħåĪ¤æĸŃä»įåıĹæĿ¡ä»¶éĻĲåĪ¶": 2690,
      "è¿½æº¯åİŁåĽłæĹ¶": 2691,
      "æ»¡è¶³çĲĨæĥ³åģĩè®¾": 2692,
      "éĢłæĪĲçĽ´è§īè¯¯åĪ¤çļĦåİŁåĽłå¾Ģå¾Ģæĺ¯æ²¡æľīçľĭåĪ°": 2693,
      "åı¦å¤ĸåĪ«æĬĬè¿ĻäºĽæ¦Ĥå¿µæ··åľ¨ä¸Ģèµ·": 2694,
      "çİ°å®ŀæĿ¡ä»¶å¹¶ä¸įæĢ»æ»¡è¶³çĲĨæĥ³åģĩè®¾": 2695,
      "ä¸İçĽ¸è¿ĳæ¦Ĥå¿µæĶ¾åľ¨ä¸Ģèµ·æ¯Ķè¾ĥæĹ¶": 2696,
      "è¿ĺåºĶæĬĬå®ĥä¸İçĽ¸åħ³æ¦Ĥå¿µåĮºåĪĨå¼Ģ": 2697,
      "è¿Ļè¡¨æĺİè¿ĻäºĽæ¦Ĥå¿µä¸įåºĶæ··ä¸ºä¸Ģè°Ī": 2698,
      "è¦ģçĲĨè§£è¿Ļç§įåºĶçĶ¨ä¸ºä»Ģä¹ĪæĪĲç«ĭ": 2699,
      "åı¯ä»¥åħĪä»İè¿Ļä¸ªäºĭå®ŀåĩºåıĳ": 2700,
      "æĽ´åĩĨç¡®çļĦçĲĨè§£åºĶå½ĵä»İå®ļä¹īå¼Ģå§ĭ": 2701,
      "èĢĮè¿Ļç§įåĮºåĪ«ä¹ĭæīĢä»¥æĪĲç«ĭ": 2702,
      "å½ĵæĬĬç»ĵè®ºçĶ¨äºİæĸ°æĥħå¢ĥæĹ¶è¿ĺè¦ģæ£ĢæŁ¥éĻĲåĪ¶": 2703,
      "æ¯Ķè¾ĥä¹ĭåĲİåĨįçľĭåºĶçĶ¨ä¼ļæĽ´æ¸ħæ¥ļ": 2704,
      "éĢłæĪĲçĽ´è§īè¯¯åĪ¤çļĦåİŁåĽłå¾Ģå¾Ģæĺ¯æ²¡æľīçľĭåĪ°åĨħéĥ¨æľºåĪ¶": 2705,
      "ving": 2706,
      "Ġtarg": 2707,
      "Ġisol": 2708,
      "éĩıåŃĲ": 2709,
      "å¹¶ä¸Ķ": 2710,
      "éľĢè¦ģåĪĨæŀĲ": 2711,
      "åĬ¨æĢģ": 2712,
      "Ġtransform": 2713,
      "åĵªéĩĮ": 2714,
      "Ġemployees": 2715,
      "çĹħ": 2716,
      "Ġtarget": 2717,
      "è®¿": 2718,
      "ä¸Ģæ¬¡": 2719,
      "å¯¹è±¡": 2720,
      "Ġenviron": 2721,
      "imensional": 2722,
      "é¢ĳçİĩ": 2723,
      "king": 2724,
      "ä¸Ģç§į": 2725,
      "cel": 2726,
      "æľīä¸Ģä¸ª": 2727,
      "Ġgrow": 2728,
      "ify": 2729,
      "åĲĪçĲĨ": 2730,
      "è§Ĥæµĭ": 2731,
      "Ġmatrix": 2732,
      "åĳ¨": 2733,
      "éķ¿åº¦": 2734,
      "éĿŀå¸¸": 2735,
      "Ġoptimization": 2736,
      "éĩĩæł·": 2737,
      "Ġguarantee": 2738,
      "ĠL": 2739,
      "Ġed": 2740,
      "æķħ": 2741,
      "edi": 2742,
      "Ġalgorith": 2743,
      "ateg": 2744,
      "ption": 2745,
      "å±ŀ": 2746,
      "çŃĶ": 2747,
      "pec": 2748,
      "Ġchanging": 2749,
      "Ġcontain": 2750,
      "çŃīäºİ": 2751,
      "Ġlog": 2752,
      "Ġatt": 2753,
      "Ġchem": 2754,
      "å¤įæĿĤåº¦": 2755,
      "æĮĩæłĩ": 2756,
      "è¯Ħä¼°": 2757,
      "æĭŁåĲĪ": 2758,
      "æł¡æŃ£": 2759,
      "Ġbias": 2760,
      "ness": 2761,
      "Ĩæŀ¶": 2762,
      "Ĭéĩį": 2763,
      "read": 2764,
      "Ġslow": 2765,
      "Ġdom": 2766,
      "Ġpat": 2767,
      "Ġfail": 2768,
      "è¯·": 2769,
      "æĹ¥": 2770,
      "å°Ĭéĩį": 2771,
      "ä»¥åıĬ": 2772,
      "olog": 2773,
      "æ¦Ĥæĭ¬": 2774,
      "åĢĻ": 2775,
      "Ġcoun": 2776,
      "éĹ®é¢ĺä¸Ń": 2777,
      "ä¿ĿçķĻ": 2778,
      "è¿Ľåħ¥": 2779,
      "Ġrelative": 2780,
      "å¿ħé¡»å°Ĭéĩį": 2781,
      "Ġnumerical": 2782,
      "æ¡Ī": 2783,
      "æ¡Ĩæŀ¶": 2784,
      "Ġpopulation": 2785,
      "Ġsupport": 2786,
      "æľīçĶ¨çļĦ": 2787,
      "ag": 2788,
      "ages": 2789,
      "bal": 2790,
      "ords": 2791,
      "çļĦå¸¸è§ģ": 2792,
      "æĬĺ": 2793,
      "å¯¹åºĶ": 2794,
      "Ġasks": 2795,
      "æĺİç¡®": 2796,
      "Ġrelated": 2797,
      "Ġtherefore": 2798,
      "æķħéļľ": 2799,
      "¨Ģ": 2800,
      "è¨Ģ": 2801,
      "inite": 2802,
      "abil": 2803,
      "æĿ¡ä»¶åıĳçĶŁåıĺåĮĸ": 2804,
      "è½¬åĬ¨": 2805,
      "è¯Ńè¨Ģ": 2806,
      "Ġstatistics": 2807,
      "Ġvector": 2808,
      "(*": 2809,
      "agn": 2810,
      "get": 2811,
      "ä¸ī": 2812,
      "oring": 2813,
      "Ġreso": 2814,
      "ä¸įæĸŃ": 2815,
      "æĹĭ": 2816,
      "åĪĨéħį": 2817,
      "è¦ģçľĭ": 2818,
      "æĬ¤": 2819,
      "æľīæķĪ": 2820,
      "que": 2821,
      "Ġorig": 2822,
      "æĬĬæĬ½è±¡": 2823,
      "åı¯ä»¥éĢļè¿ĩ": 2824,
      "ift": 2825,
      "urce": 2826,
      "èĢĮæĺ¯": 2827,
      "çĶµåľº": 2828,
      "åĳ½": 2829,
      "ude": 2830,
      "äºĭåĬ¡": 2831,
      "ç§»åĬ¨": 2832,
      "æ´ĭ": 2833,
      "Ġgeneral": 2834,
      "ç´¢å¼ķ": 2835,
      "åı¥è¯Ŀ": 2836,
      "(*)": 2837,
      "èĦ": 2838,
      "èĪ": 2839,
      "erial": 2840,
      "Ġwr": 2841,
      "Ġstates": 2842,
      "Ġbefore": 2843,
      "èĥ½æ£ĢéªĮ": 2844,
      "å¹²": 2845,
      "è¦ģè§£éĩĬ": 2846,
      "åı¯ä»¥æ¦Ĥæĭ¬": 2847,
      "çĶµèį": 2848,
      "ants": 2849,
      "ially": 2850,
      "ä¸ĬçļĦ": 2851,
      "arily": 2852,
      "Ġreco": 2853,
      "æĿ¥èĩªåĵªéĩĮ": 2854,
      "Ġcomputation": 2855,
      "é¢Ŀå¤ĸ": 2856,
      "ä¸įç¡®å®ļæĢ§": 2857,
      "çĶµèį·": 2858,
      "00": 2859,
      "ew": 2860,
      "of": 2861,
      "Ġfa": 2862,
      "oment": 2863,
      "Ġnon": 2864,
      "è¿Ļåı¥è¯Ŀ": 2865,
      "è¡°": 2866,
      "Ġproper": 2867,
      "stra": 2868,
      "æĬĬå®ļä¹ī": 2869,
      "åįĩ": 2870,
      "æĽ´å¤ļ": 2871,
      "éľĢè¦ģæ¾Ħæ¸ħçļĦ": 2872,
      "æľĢåĢ¼å¾Ĺ": 2873,
      "ä¸Ģä¸ªåħ·ä½ĵåľºæĻ¯æĺ¯": 2874,
      "ä¸Ģä¸ªæľīçĶ¨çļĦ": 2875,
      "ä¸Ģä¸ªèĥ½æ£ĢéªĮ": 2876,
      "æ¦Ĥå¿µçĽ¸æ¯Ķ": 2877,
      "ä»İåŁºç¡Ģ": 2878,
      "åħĪåĮºåĪĨçļĦæĺ¯": 2879,
      "çĲĨè§£æĺ¯åĲ¦": 2880,
      "ç»ĵæŀľä¸ºä»Ģä¹Ī": 2881,
      "åĽŀçľĭ": 2882,
      "å®ĥè¿«ä½¿": 2883,
      "å®ļä¹īåĽŀçľĭ": 2884,
      "æľºåĪ¶å¹¶ä¸įæĺ¯": 2885,
      "åıĤçħ§": 2886,
      "è¿Ļç§įæľºåĪ¶å¹¶ä¸įæĺ¯": 2887,
      "æ¸ħæ··æ·Ĩ": 2888,
      "è¿Ļæł·åıĺåĮĸ": 2889,
      "åĲĮæĹ¶è¿ĺåı¯ä»¥çĶ¨": 2890,
      "è¿Ļä¸ªè¾¹çķĮ": 2891,
      "è¿Ļä¸ªå¯¹çħ§": 2892,
      "åºĶçĶ¨çİ°è±¡": 2893,
      "è¾¹çķĮçļĦå¸¸è§ģ": 2894,
      "å¦ĤæŀľæĿ¡ä»¶åıĳçĶŁåıĺåĮĸ": 2895,
      "ä»įå¿ħé¡»å°Ĭéĩį": 2896,
      "æ£ĢæŁ¥çĲĨè§£": 2897,
      "Ġprocesses": 2898,
      "åħĪä»İåºĶçĶ¨çİ°è±¡": 2899,
      "ä¹ĭåĲİä»įå¿ħé¡»å°Ĭéĩį": 2900,
      "è¿Ļä¸ĢæľºåĪ¶": 2901,
      "è¿Ļä¸Ģè¾¹çķĮçļĦå¸¸è§ģ": 2902,
      "ä¸İçĽ¸éĤ»": 2903,
      "èĬĤçĤ¹": 2904,
      "åĩĨç¡®çļĦåħ·ä½ĵåľºæĻ¯æĺ¯": 2905,
      "åĩłä½ķ": 2906,
      "è¯´æ³ķæĶ¾åĽŀ": 2907,
      "å®ŀéĻħåĪ¤æĸŃæĹ¶è¿ĺè¦ģæ£ĢæŁ¥": 2908,
      "æ¦Ĥå¿µå¯¹çħ§æĺ¯": 2909,
      "æĥħå¢ĥä¸Ń": 2910,
      "æĶ¾åĪ°å®ŀéĻħæĥħå¢ĥä¸Ń": 2911,
      "åĽŀåĪ°æł¸å¿ĥå®ļä¹ī": 2912,
      "è¿ĺåı¯ä»¥çĶ¨è¿Ļåı¥è¯Ŀ": 2913,
      "æ··æ·Ĩè¿ĺåı¯ä»¥çĶ¨è¿Ļåı¥è¯Ŀ": 2914,
      "çĶ±æŃ¤åı¯è§ģ": 2915,
      "çĶ±æŃ¤åĽŀåĪ°æł¸å¿ĥå®ļä¹ī": 2916,
      "è¿Ľä¸ĢæŃ¥å±ķå¼Ģ": 2917,
      "ä½ľä¸ºåıĤçħ§": 2918,
      "è¿Ļä¸ªä¸»é¢ĺæľīä¸Ģä¸ª": 2919,
      "åı¯è§Ĥå¯Łç»ĵæŀľä¸Ń": 2920,
      "æĪĳä»¬æĬĬæĬ½è±¡": 2921,
      "åĽ´ç»ķè¿Ļä¸Ģè¾¹çķĮçļĦå¸¸è§ģ": 2922,
      "ä¿®æŃ£ä¹ĭåĲİä»įå¿ħé¡»å°Ĭéĩį": 2923,
      "åı¯ä»¥åħĪåģļæ¦Ĥå¿µå¯¹çħ§": 2924,
      "æĹłæĿ¡ä»¶æĪĲç«ĭ": 2925,
      "åħ³éĶ®åĽłæŀľéĵ¾åı¯ä»¥æ¦Ĥæĭ¬": 2926,
      "éľĢè¦ģåĪĨæŀĲè¿Ļä¸ĢæľºåĪ¶": 2927,
      "è¦ģçľĭæ¸ħæ··æ·Ĩ": 2928,
      "è¦ģè§£éĩĬç»ĵæŀľä¸ºä»Ģä¹Ī": 2929,
      "éľĢè¦ģæ¾Ħæ¸ħçļĦå¸¸è§ģè¯¯åĮº": 2930,
      "æľĢåĢ¼å¾ĹåħĪåĮºåĪĨçļĦæĺ¯": 2931,
      "ä¸Ģä¸ªæľīçĶ¨çļĦæ¦Ĥå¿µå¯¹çħ§æĺ¯": 2932,
      "ä¸Ģä¸ªèĥ½æ£ĢéªĮçĲĨè§£æĺ¯åĲ¦": 2933,
      "ä»İåŁºç¡Ģå®ļä¹īåĽŀçľĭ": 2934,
      "å®ĥè¿«ä½¿æĪĳä»¬æĬĬæĬ½è±¡": 2935,
      "è¿Ļç§įæľºåĪ¶å¹¶ä¸įæĺ¯æĹłæĿ¡ä»¶æĪĲç«ĭ": 2936,
      "åĲĮæĹ¶è¿ĺåı¯ä»¥çĶ¨è¿Ļä¸ªå¯¹çħ§": 2937,
      "åħĪä»İåºĶçĶ¨çİ°è±¡çľĭ": 2938,
      "ä¸İçĽ¸éĤ»æ¦Ĥå¿µçĽ¸æ¯Ķ": 2939,
      "è¯´æ³ķæĶ¾åĽŀåı¯è§Ĥå¯Łç»ĵæŀľä¸Ń": 2940,
      "æ··æ·Ĩè¿ĺåı¯ä»¥çĶ¨è¿Ļåı¥è¯Ŀæł¡æŃ£": 2941,
      "è¿Ļä¸ªä¸»é¢ĺæľīä¸Ģä¸ªéľĢè¦ģæ¾Ħæ¸ħçļĦå¸¸è§ģè¯¯åĮº": 2942,
      "åĽ´ç»ķè¿Ļä¸Ģè¾¹çķĮçļĦå¸¸è§ģæ··æ·Ĩè¿ĺåı¯ä»¥çĶ¨è¿Ļåı¥è¯Ŀæł¡æŃ£": 2943,
      "ä¿®æŃ£ä¹ĭåĲİä»įå¿ħé¡»å°Ĭéĩįè¿Ļä¸ªè¾¹çķĮ": 2944,
      "åħ³éĶ®åĽłæŀľéĵ¾åı¯ä»¥æ¦Ĥæĭ¬ä¸º": 2945,
      "è¦ģçľĭæ¸ħæ··æ·ĨæĿ¥èĩªåĵªéĩĮ": 2946,
      "è¦ģè§£éĩĬç»ĵæŀľä¸ºä»Ģä¹Īè¿Ļæł·åıĺåĮĸ": 2947,
      "ä¸Ģä¸ªèĥ½æ£ĢéªĮçĲĨè§£æĺ¯åĲ¦åĩĨç¡®çļĦåħ·ä½ĵåľºæĻ¯æĺ¯": 2948,
      "å®ĥè¿«ä½¿æĪĳä»¬æĬĬæĬ½è±¡è¯´æ³ķæĶ¾åĽŀåı¯è§Ĥå¯Łç»ĵæŀľä¸Ń": 2949,
      "åĲĮæĹ¶è¿ĺåı¯ä»¥çĶ¨è¿Ļä¸ªå¯¹çħ§æ£ĢæŁ¥çĲĨè§£": 2950,
      "lish": 2951,
      "Ġvery": 2952,
      "Ġdynam": 2953,
      "å®ĩ": 2954,
      "å®ī": 2955,
      "Ġtoken": 2956,
      "åŁºæľ¬": 2957,
      "è§Ĵåº¦": 2958,
      "ĠEarth": 2959,
      "Ġtests": 2960,
      "Ġinputs": 2961,
      "å¤ªéĺ³": 2962,
      "ering": 2963,
      "Ġrely": 2964,
      "ute": 2965,
      "Ġbecome": 2966,
      "æĸ°çļĦ": 2967,
      "æłĩåĩĨ": 2968,
      "ä»įçĦ¶": 2969,
      "Ġconcer": 2970,
      "Ġmeasurement": 2971,
      "å»ºç«ĭ": 2972,
      "è¯·æ±Ĥ": 2973,
      "TTP": 2974,
      "Ġbas": 2975,
      "Ġocean": 2976,
      "Ġele": 2977,
      "hem": 2978,
      "Ġlater": 2979,
      "Ġorbit": 2980,
      "æĸ¹ç¨ĭ": 2981,
      "è¿ĺéľĢè¦ģ": 2982,
      "ference": 2983,
      "Ġimpro": 2984,
      "åīĤ": 2985,
      "Ġreli": 2986,
      "ç±»åŀĭ": 2987,
      "Ġstatus": 2988,
      "å»¶": 2989,
      "åı¦ä¸Ģä¸ª": 2990,
      "urrent": 2991,
      "Ġmethods": 2992,
      "Ġrisk": 2993,
      "ä¸ļåĬ¡": 2994,
      "fit": 2995,
      "ores": 2996,
      "èĨ": 2997,
      "é¦": 2998,
      "imes": 2999,
      "Ġalways": 3000,
      "æĽ´é«ĺ": 3001,
      "è½½": 3002,
      "æĮģç»Ń": 3003,
      "Ġassumptions": 3004,
      "Ġstudies": 3005,
      "Ġconcerns": 3006,
      "å¡": 3007,
      "æĲ": 3008,
      "Ġ1": 3009,
      "ins": 3010,
      "æµĵ": 3011,
      "rig": 3012,
      "è´£": 3013,
      "Ġmaterial": 3014,
      "éĢŁçİĩ": 3015,
      "Ġspeed": 3016,
      "å¼ķåĬĽ": 3017,
      "Ġproblem": 3018,
      "Ġrespons": 3019,
      "bedding": 3020,
      "è®¿éĹ®": 3021,
      "nal": 3022,
      "point": 3023,
      "ene": 3024,
      "å®Ļ": 3025,
      "è®¢": 3026,
      "å¹¶åıĳ": 3027,
      "ched": 3028,
      "æĢ§åĴĮ": 3029,
      "çĽ¸ä¼¼": 3030,
      "Ġexec": 3031,
      "åŃĺåĤ¨": 3032,
      "èĩªçĦ¶": 3033,
      "ĠON": 3034,
      "å±Ĥæ¬¡": 3035,
      "æ¶²": 3036,
      "Ġnumbers": 3037,
      "Ġmeasures": 3038,
      "Ġupdates": 3039,
      "Ġagg": 3040,
      "Ġarticles": 3041,
      "Ġoriginal": 3042,
      "å®ĩå®Ļ": 3043,
      "ä¸¥": 3044,
      "ree": 3045,
      "ä»ħ": 3046,
      "aries": 3047,
      "Ġred": 3048,
      "æķı": 3049,
      "Ġstability": 3050,
      "æľīåĪ©": 3051,
      "Ġglo": 3052,
      "osition": 3053,
      "Ġuni": 3054,
      "ç§įç¾¤": 3055,
      "æĿ¡ä»¶ä¸ĭ": 3056,
      "è°ĥæİ§": 3057,
      "éĢļå¸¸éľĢè¦ģ": 3058,
      "Ġtransfer": 3059,
      "éĢĤçĶ¨": 3060,
      "Ġoutput": 3061,
      "Ġabs": 3062,
      "æİ¨çĲĨ": 3063,
      "æ¼Ķ": 3064,
      "ordin": 3065,
      "æħ¢": 3066,
      "och": 3067,
      "ric": 3068,
      "atory": 3069,
      "atures": 3070,
      "esis": 3071,
      "Ġmoment": 3072,
      "Ġang": 3073,
      "Ġflow": 3074,
      "æ¸Ĳ": 3075,
      "åıªèĥ½": 3076,
      "Ġshow": 3077,
      "Ġremains": 3078,
      "è¯Ńä¹ī": 3079,
      "Ġfix": 3080,
      "å¿«éĢŁ": 3081,
      "Ġsignal": 3082,
      "åį³ä½¿": 3083,
      "Ġexamples": 3084,
      "èģļåĲĪ": 3085,
      "Ġfilter": 3086,
      "åĳ¨æľŁ": 3087,
      "aw": 3088,
      "ape": 3089,
      "ning": 3090,
      "ough": 3091,
      "Ġamon": 3092,
      "ĠIN": 3093,
      "Ġide": 3094,
      "è½¬æį¢": 3095,
      "Ġinternal": 3096,
      "Ġreduces": 3097,
      "æ¼Ĥ": 3098,
      "æ¼ı": 3099,
      "Ġstudy": 3100,
      "Ġmultiple": 3101,
      "ç»Ļåĩº": 3102,
      "Ġconsistency": 3103,
      "ropout": 3104,
      "Ġgeomet": 3105,
      "è®¢åįķ": 3106,
      "Ġamong": 3107,
      "orage": 3108,
      "Ġdown": 3109,
      "ç»Ŀ": 3110,
      "Ġthem": 3111,
      "éĩĳ": 3112,
      "å¹´": 3113,
      "å¯»": 3114,
      "Ġprot": 3115,
      "åıĺæį¢": 3116,
      "ä¼ļæĶ¹åıĺ": 3117,
      "osp": 3118,
      "Ġvis": 3119,
      "è¡¨çİ°": 3120,
      "ä¿ĿåŃĺ": 3121,
      "è½¬åĮĸ": 3122,
      "arbon": 3123,
      "ressure": 3124,
      "Ġsimple": 3125,
      "æŀģéĻĲ": 3126,
      "æ³¢åĬ¨": 3127,
      "Ġprovide": 3128,
      "éĢĲæŃ¥": 3129,
      "æĹĭè½¬": 3130,
      "ura": 3131,
      "è¿Ł": 3132,
      "æľ¯": 3133,
      "Ġfol": 3134,
      "åľ¨ä¸įåĲĮ": 3135,
      "åĩ¸": 3136,
      "è§£åĨ³": 3137,
      "ä¸ŃéĹ´": 3138,
      "å¤ļå°ĳ": 3139,
      "è°±": 3140,
      "Ġsearch": 3141,
      "çŁ³": 3142,
      "Ġheat": 3143,
      "Ġdifferences": 3144,
      "æĺİæĺ¾": 3145,
      "ä»»æĦı": 3146,
      "åĳĺ": 3147,
      "Ġrow": 3148,
      "Ġadj": 3149,
      "Ġindex": 3150,
      "Ġordinary": 3151,
      "Ġtask": 3152,
      "Ġcapacity": 3153,
      "Ġgradient": 3154,
      "Ġchemical": 3155,
      "æķıæĦŁ": 3156,
      "pret": 3157,
      "çģ": 3158,
      "Ġ>": 3159,
      "Ġcr": 3160,
      "Ġref": 3161,
      "Ġox": 3162,
      "ental": 3163,
      "Ġtoo": 3164,
      "Ġstorage": 3165,
      "igher": 3166,
      "çł´": 3167,
      "Ġsampling": 3168,
      "éħ¸": 3169,
      "Ġcontinuous": 3170,
      "åĪĿå§ĭ": 3171,
      "å®īåħ¨": 3172,
      "Ġaggreg": 3173,
      "dimensional": 3174,
      "ost": 3175,
      "¿Ģ": 3176,
      "æ¿Ģ": 3177,
      "Ġif": 3178,
      "Ġmon": 3179,
      "Ġdiv": 3180,
      "Ġread": 3181,
      "aset": 3182,
      "çĽĳ": 3183,
      "Ġselect": 3184,
      "è°ĥåº¦": 3185,
      "å®¹éĩı": 3186,
      "Ġbetter": 3187,
      "Ġreactions": 3188,
      "èĲ": 3189,
      "Ġnat": 3190,
      "Ġlab": 3191,
      "çĽĸ": 3192,
      "ilib": 3193,
      "å®ŀçİ°": 3194,
      "rium": 3195,
      "æĭ¥": 3196,
      "ival": 3197,
      "éĥ½ä¾Ŀèµĸ": 3198,
      "çŃīä»·": 3199,
      "Ġdataset": 3200,
      "ç¼º": 3201,
      "æ²ī": 3202,
      "è§Ħå¾ĭ": 3203,
      "Ġemph": 3204,
      "Ġequilib": 3205,
      "Ġconstant": 3206,
      "Ġparameter": 3207,
      "Ġaddition": 3208,
      "Ġnoise": 3209,
      "éĢĲæ¸Ĳ": 3210,
      "Ġphys": 3211,
      "Ġdirectly": 3212,
      "Ġemphas": 3213,
      "Ġequilibrium": 3214,
      "AV": 3215,
      "ox": 3216,
      "atic": 3217,
      "å¤ĩ": 3218,
      "æľīåĬ©": 3219,
      "Ġcoordin": 3220,
      "æ£Ģæµĭ": 3221,
      "è·¨": 3222,
      "Ġkeys": 3223,
      "Ġelectron": 3224,
      "å¯Ĩåº¦": 3225,
      "æĿĥéĩį": 3226,
      "Ġweight": 3227,
      "Ġoperations": 3228,
      "Ġdetermine": 3229,
      "Ġdepartment": 3230,
      "æĺłå°Ħ": 3231,
      "æľīåĬ©äºİ": 3232,
      "ac": 3233,
      "action": 3234,
      "cies": 3235,
      "Ġcarbon": 3236,
      "Ġsing": 3237,
      "encies": 3238,
      "Ġpow": 3239,
      "Ġbatch": 3240,
      "è¿ĩåº¦": 3241,
      "è´¥": 3242,
      "å¤įåĪ¶": 3243,
      "è°¢": 3244,
      "Ġappe": 3245,
      "Ġprev": 3246,
      "ä»£è°¢": 3247,
      "å¤±è´¥": 3248,
      "Ġincl": 3249,
      "å¼Ĥå¸¸": 3250,
      "Ġdirections": 3251,
      "è´Łè´£": 3252,
      "Ġmolecular": 3253,
      "ci": 3254,
      "atives": 3255,
      "çļĦæ¦Ĥçİĩ": 3256,
      "åĲĦ": 3257,
      "arm": 3258,
      "Ġlarg": 3259,
      "è¿ĻéĩĮ": 3260,
      "æĪĲåĬŁ": 3261,
      "ĠAV": 3262,
      "els": 3263,
      "olution": 3264,
      "izer": 3265,
      "å¤§æ°Ķ": 3266,
      "åİĨ": 3267,
      "Ġselection": 3268,
      "lock": 3269,
      "Ġatom": 3270,
      "å½ĵåīį": 3271,
      "Ġdescribe": 3272,
      "Ġnormalization": 3273,
      "ified": 3274,
      "Ġenvironment": 3275,
      "che": 3276,
      "Ġdr": 3277,
      "ication": 3278,
      "åı¯éĿł": 3279,
      "ä¸Ńå¿ĥ": 3280,
      "Ġgro": 3281,
      "æľĢå°ı": 3282,
      "åĮºéĹ´": 3283,
      "Ġwhere": 3284,
      "produ": 3285,
      "ç¦»åŃĲ": 3286,
      "Ġrecords": 3287,
      "Ġfeatures": 3288,
      "ç²¾ç¡®": 3289,
      "æµ·æ´ĭ": 3290,
      "Ġminim": 3291,
      "æµĵåº¦": 3292,
      "ond": 3293,
      "Ġtr": 3294,
      "çļĦçĲĨè§£": 3295,
      "Ġfull": 3296,
      "Ġinst": 3297,
      "ç§©": 3298,
      "Ġhigher": 3299,
      "amount": 3300,
      "Ġmost": 3301,
      "èĩ³": 3302,
      "Ġdatab": 3303,
      "Ġenc": 3304,
      "å®ĮæĪĲ": 3305,
      "ä¿®æĶ¹": 3306,
      "Ġincreases": 3307,
      "Ġcomplexity": 3308,
      "ypoth": 3309,
      "ological": 3310,
      "å»¶è¿Ł": 3311,
      "ier": 3312,
      "se": 3313,
      "åĸ": 3314,
      "Īæľ¬": 3315,
      "çļĦæł¸å¿ĥ": 3316,
      "rodu": 3317,
      "Ġwind": 3318,
      "ä¸ĢåĮĸ": 3319,
      "éĹ¨": 3320,
      "åĽłç´ł": 3321,
      "Ġhypoth": 3322,
      "åĨ²": 3323,
      "æ³Ľ": 3324,
      "çīĪæľ¬": 3325,
      "éľĢæ±Ĥ": 3326,
      "Ġrun": 3327,
      "éļĲ": 3328,
      "åįķä½į": 3329,
      "aves": 3330,
      "å¯Ĩçłģ": 3331,
      "å½Ĵä¸ĢåĮĸ": 3332,
      "çĽ¸äºĴä½ľçĶ¨": 3333,
      "Ġquery": 3334,
      "NER": 3335,
      "è£": 3336,
      "Ġver": 3337,
      "Ġtherm": 3338,
      "Ġreve": 3339,
      "éĢı": 3340,
      "Ġcommun": 3341,
      "è¾Ĳ": 3342,
      "ries": 3343,
      "éĥ½éľĢè¦ģ": 3344,
      "è¶ĭ": 3345,
      "éĩĬæĶ¾": 3346,
      "æĥ¯": 3347,
      "æ²¿": 3348,
      "Ġinterpret": 3349,
      "Ġactiv": 3350,
      "Ġvariable": 3351,
      "Ġprovides": 3352,
      "Ġscale": 3353,
      "Ġprogram": 3354,
      "Ġisolation": 3355,
      "Ġglobal": 3356,
      "Ġfixed": 3357,
      "count": 3358,
      "ia": 3359,
      "Ġes": 3360,
      "Ĳæłĩ": 3361,
      "Ġcy": 3362,
      "Ġthose": 3363,
      "çļĦé£İéĻ©": 3364,
      "Ġrece": 3365,
      "Ġwa": 3366,
      "äº«": 3367,
      "æĽ¿": 3368,
      "åĵģ": 3369,
      "ä¹ĭåīį": 3370,
      "Ġusing": 3371,
      "åİŁå§ĭ": 3372,
      "åĿĲæłĩ": 3373,
      "Ġpoly": 3374,
      "æľŁæľĽ": 3375,
      "æĺŁç³»": 3376,
      "åħ±äº«": 3377,
      "Ġobservations": 3378,
      "å·²æľī": 3379,
      "Ġeffects": 3380,
      "Ġnetworks": 3381,
      "Ġcombin": 3382,
      "angu": 3383,
      "å¯»æī¾": 3384,
      "ĠAVG": 3385,
      "NS": 3386,
      "¬åĮĸ": 3387,
      "Ġterm": 3388,
      "çļĦæķ°æį®": 3389,
      "here": 3390,
      "éĻĦ": 3391,
      "æľīæľº": 3392,
      "terns": 3393,
      "Ġexpect": 3394,
      "è¿ĺåİŁ": 3395,
      "å¹¶ä¸įèĩªåĬ¨": 3396,
      "éĿĻ": 3397,
      "Ġsuc": 3398,
      "Ġforce": 3399,
      "å¤ĸéĥ¨": 3400,
      "å¢ŀéķ¿": 3401,
      "çİ¯æµģ": 3402,
      "Ġconsum": 3403,
      "åĤ¬åĮĸ": 3404,
      "Ġrotation": 3405,
      "åĲ¸æĶ¶": 3406,
      "ven": 3407,
      "éĴ": 3408,
      "ream": 3409,
      "Ġsched": 3410,
      "çļĦéĩįè¦ģ": 3411,
      "aster": 3412,
      "Ġless": 3413,
      "åĪĨç±»": 3414,
      "æŃ»": 3415,
      "å¸¸æķ°": 3416,
      "veral": 3417,
      "olic": 3418,
      "æ¨¡å¼ı": 3419,
      "çĶµç£ģ": 3420,
      "éĥ½åı¯ä»¥": 3421,
      "Ġdiffer": 3422,
      "ä¿¡åº¦": 3423,
      "andard": 3424,
      "æķĪåº¦": 3425,
      "åĿĢ": 3426,
      "åĿı": 3427,
      "Ġscores": 3428,
      "ared": 3429,
      "è®°ä½ı": 3430,
      "å¯¼æķ°": 3431,
      "ification": 3432,
      "Ġexpress": 3433,
      "Ġprim": 3434,
      "Ġreaction": 3435,
      "celer": 3436,
      "Ġpatterns": 3437,
      "Ġadjust": 3438,
      "è¾Ĳå°Ħ": 3439,
      "oot": 3440,
      "¯ä¸Ģ": 3441,
      "¹éħį": 3442,
      "åĶ": 3443,
      "æĳ": 3444,
      "Ġtyp": 3445,
      "Ġcar": 3446,
      "Ġcases": 3447,
      "åĪĩ": 3448,
      "Ġfinal": 3449,
      "Ġfaster": 3450,
      "ä¸įåıĺ": 3451,
      "æĺ¯è¯¯åĮº": 3452,
      "åĮ¹éħį": 3453,
      "Ġlight": 3454,
      "idation": 3455,
      "æĬĹ": 3456,
      "æĽ²": 3457,
      "Ġexact": 3458,
      "åıĳçİ°": 3459,
      "è¶³å¤Ł": 3460,
      "Ġactive": 3461,
      "Ġvariables": 3462,
      "Ġdetermines": 3463,
      "Ġapproximate": 3464,
      "Ġextre": 3465,
      "å²©çŁ³": 3466,
      "åħ¬å¼ı": 3467,
      "ategory": 3468,
      "éĻĦè¿ĳ": 3469,
      "åĶ¯ä¸Ģ": 3470,
      "ties": 3471,
      "Ġcategory": 3472,
      "åı£": 3473,
      "Ġpressure": 3474,
      "åħ¸": 3475,
      "åħħ": 3476,
      "Ġreprodu": 3477,
      "Ġinit": 3478,
      "ä¸įåı¯": 3479,
      "è¯¥": 3480,
      "åĮ»": 3481,
      "Ġlength": 3482,
      "éĢļä¿¡": 3483,
      "ç¨³": 3484,
      "æīį": 3485,
      "åĬ¨éĩı": 3486,
      "åĬ¨åĬĽåŃ¦": 3487,
      "æĭĨ": 3488,
      "åįķä¸ª": 3489,
      "Ġintrodu": 3490,
      "éĺ»": 3491,
      "ä¹Łä¼ļ": 3492,
      "ody": 3493,
      "pag": 3494,
      "Ġrequest": 3495,
      "ä¸įèĥ½åıª": 3496,
      "Ġpla": 3497,
      "Ġgrav": 3498,
      "ING": 3499,
      "Ġconstr": 3500,
      "åĨ³çŃĸ": 3501,
      "çĻ¾": 3502,
      "è¿ŀæİ¥æĪĲ": 3503,
      "Ġtreat": 3504,
      "ĠINNER": 3505,
      "AVING": 3506,
      "DNA": 3507,
      "ĨçĽĸ": 3508,
      "Ġserv": 3509,
      "åıĪ": 3510,
      "åľŁ": 3511,
      "éĢģ": 3512,
      "æķ°åŃĹ": 3513,
      "æĸ¯": 3514,
      "æĢİ": 3515,
      "è¦ĨçĽĸ": 3516,
      "velo": 3517,
      "ching": 3518,
      "å¤§çļĦ": 3519,
      "æ¯Ķä¾ĭ": 3520,
      "Ġshort": 3521,
      "Ġacceler": 3522,
      "Ġtransport": 3523,
      "æ°ĶåĢĻ": 3524,
      "Ġassign": 3525,
      "Ġindiv": 3526,
      "Ġregions": 3527,
      "Ġupdate": 3528,
      "Ġcentral": 3529,
      "Ġoccurs": 3530,
      "Ġwrit": 3531,
      "Ġproperties": 3532,
      "Ġlarger": 3533,
      "ged": 3534,
      "ªå¿ĥ": 3535,
      "erve": 3536,
      "Ġreplication": 3537,
      "Ġearly": 3538,
      "Ġprote": 3539,
      "è´ªå¿ĥ": 3540,
      "Ġrules": 3541,
      "çŃ¾": 3542,
      "çİ°ä»£": 3543,
      "åıĤä¸İ": 3544,
      "è§ĦåĪĴ": 3545,
      "pping": 3546,
      "Ġdisc": 3547,
      "Ġrepresentations": 3548,
      "Ġestimate": 3549,
      "Ġrange": 3550,
      "Ġinfluence": 3551,
      "Ġboundaries": 3552,
      "è¡°åĩı": 3553,
      "strap": 3554,
      "Ġpower": 3555,
      "ootstrap": 3556,
      "æĢİæł·": 3557,
      "ble": 3558,
      "çĨ": 3559,
      "èŀ": 3560,
      "Ġ'": 3561,
      "åı¶": 3562,
      "Ġreach": 3563,
      "å¤´": 3564,
      "Ġfast": 3565,
      "ä¸įä¾Ŀèµĸ": 3566,
      "Ġep": 3567,
      "åŃ¤": 3568,
      "å¿Ĺ": 3569,
      "è§£æŀĲ": 3570,
      "æľīåħ³": 3571,
      "ç§°": 3572,
      "ches": 3573,
      "Ġmoves": 3574,
      "éĥ¨ç½": 3575,
      "Ġseveral": 3576,
      "çĲĨè§£æĪĲ": 3577,
      "åĽŀå½Ĵ": 3578,
      "ä¸Ĭä¸ĭ": 3579,
      "Ġeng": 3580,
      "Ġaccess": 3581,
      "Ġloo": 3582,
      "ä½¿çĶ¨æĸ¹å¼ı": 3583,
      "Ġprobabil": 3584,
      "ç»ıå¸¸": 3585,
      "ä¼łéĢĴ": 3586,
      "Ġkey": 3587,
      "Ġdecomp": 3588,
      "Ġlearned": 3589,
      "verse": 3590,
      "Ġsubject": 3591,
      "Ġradi": 3592,
      "åĩłä¸ª": 3593,
      "èģĶç³»": 3594,
      "Ġavail": 3595,
      "Ġexperiments": 3596,
      "èĽĭçĻ½è´¨": 3597,
      "uracy": 3598,
      "Ġphysical": 3599,
      "anguage": 3600,
      "Ġinitial": 3601,
      "éĥ¨ç½²": 3602,
      "cop": 3603,
      "é©": 3604,
      "Ġcross": 3605,
      "Ġmic": 3606,
      "æķĽ": 3607,
      "åľ¨è¡¨éĿ¢": 3608,
      "Ġcomments": 3609,
      "vex": 3610,
      "istic": 3611,
      "Ġmach": 3612,
      "Ġdevelo": 3613,
      "åĽŀçŃĶ": 3614,
      "éļıæĹ¶éĹ´": 3615,
      "æł·æľ¬éĩı": 3616,
      "Ġanaly": 3617,
      "æĶ¶æķĽ": 3618,
      "æĬ½æł·": 3619,
      "Ġaccuracy": 3620,
      "Ġincrease": 3621,
      "ç¬¦": 3622,
      "æĹ¥å¿Ĺ": 3623,
      "apt": 3624,
      "ule": 3625,
      "åł": 3626,
      "alu": 3627,
      "level": 3628,
      "Ġel": 3629,
      "Ġnull": 3630,
      "Ġtoget": 3631,
      "èĥ½æĬĬ": 3632,
      "ifies": 3633,
      "è®¡åĪĴ": 3634,
      "soci": 3635,
      "æĿ¡ä»¶åĴĮ": 3636,
      "åıªæľī": 3637,
      "irst": 3638,
      "ibility": 3639,
      "Ġevalu": 3640,
      "åĨħå®¹": 3641,
      "Ġforms": 3642,
      "åħ¨éĥ¨": 3643,
      "Ġconcent": 3644,
      "Ġsimply": 3645,
      "åģıç¦»": 3646,
      "Ġequival": 3647,
      "Ġsmaller": 3648,
      "Ġrepeatedly": 3649,
      "ç²¾åº¦": 3650,
      "Ġbalan": 3651,
      "Ġdomain": 3652,
      "Ġimprove": 3653,
      "Ġexecution": 3654,
      "Ġemphasizes": 3655,
      "Ġextreme": 3656,
      "Ġtogether": 3657,
      "An": 3658,
      "PI": 3659,
      "actions": 3660,
      "ft": 3661,
      "lic": 3662,
      "medi": 3663,
      "ved": 3664,
      "é»": 3665,
      "rete": 3666,
      "Ġbest": 3667,
      "edy": 3668,
      "Ġinert": 3669,
      "ä¸įä»ħ": 3670,
      "åı¯è¿ģç§»": 3671,
      "Ġstandard": 3672,
      "åı¯ä»¥åľ¨": 3673,
      "Ġcompon": 3674,
      "Ġchar": 3675,
      "åĲĪæĪĲ": 3676,
      "ç®¡": 3677,
      "å¹¶ä¸įæĦıåĳ³çĿĢ": 3678,
      "è®¾å¤ĩ": 3679,
      "ransform": 3680,
      "Ġscore": 3681,
      "åĳĬ": 3682,
      "ç©ºæ°Ķ": 3683,
      "é£Ł": 3684,
      "Ġdecay": 3685,
      "Ġreducing": 3686,
      "roscop": 3687,
      "å¯¼èĩ´": 3688,
      "æĸĩæľ¬": 3689,
      "åİĭç¼©": 3690,
      "Ġoutcomes": 3691,
      "éĽ¶åģĩè®¾": 3692,
      "ĠHAVING": 3693,
      "Ġapproximation": 3694,
      "æİĴåºı": 3695,
      "çĸ«": 3696,
      "Ġgreedy": 3697,
      "é¦Ī": 3698,
      "ä¸Ĭä¸ĭæĸĩ": 3699,
      "Ġengine": 3700,
      "akes": 3701,
      "ix": 3702,
      "mit": 3703,
      "oid": 3704,
      "sw": 3705,
      "çļĦç»ĵæŀľ": 3706,
      "å®Ī": 3707,
      "Ġansw": 3708,
      "Ġrepl": 3709,
      "ä¸Ģéĥ¨åĪĨ": 3710,
      "Ġtoward": 3711,
      "Ġlaw": 3712,
      "raph": 3713,
      "è¾ĳ": 3714,
      "stand": 3715,
      "åįĬ": 3716,
      "æİª": 3717,
      "osing": 3718,
      "iled": 3719,
      "éª¤": 3720,
      "ensity": 3721,
      "åĬłåħ¥": 3722,
      "æŃ¥éª¤": 3723,
      "éĢĤåºĶ": 3724,
      "Ġstructures": 3725,
      "Ġstronger": 3726,
      "ä¼ĺåĮĸåĻ¨": 3727,
      "å£¤": 3728,
      "Ġvelo": 3729,
      "å¸¸è§ģè¯¯åĮºæĺ¯": 3730,
      "Ġfields": 3731,
      "è§Ĩè§Ĵ": 3732,
      "Ġcausal": 3733,
      "Ġcirculation": 3734,
      "æĶ¯æĮģ": 3735,
      "Ġangular": 3736,
      "åľŁå£¤": 3737,
      "DER": 3738,
      "FT": 3739,
      "RDER": 3740,
      "SC": 3741,
      "iew": 3742,
      "por": 3743,
      "salary": 3744,
      "to": 3745,
      "Ġcity": 3746,
      "Ġsem": 3747,
      "itude": 3748,
      "Ġpass": 3749,
      "Ġpub": 3750,
      "å®¢": 3751,
      "Ġfram": 3752,
      "åı¯çĶ¨": 3753,
      "åĴĮæķ°æį®": 3754,
      "èĥ½åĩıå°ĳ": 3755,
      "ĠIS": 3756,
      "åĲİç»Ń": 3757,
      "æŃ£åĪĻ": 3758,
      "Ġdev": 3759,
      "è¡ĮæĺŁ": 3760,
      "é«ĺæķĪ": 3761,
      "æĶ¾åľ¨": 3762,
      "éĺŁ": 3763,
      "LEFT": 3764,
      "Ġpractical": 3765,
      "Ġproduces": 3766,
      "ç»ıè¿ĩ": 3767,
      "æ°Ķä½ĵ": 3768,
      "å°±æĺ¯": 3769,
      "è¾¾åĪ°": 3770,
      "cond": 3771,
      "ç»Ħç»ĩæĸ¹å¼ı": 3772,
      "Ġparticular": 3773,
      "Ġlayers": 3774,
      "Ġbalance": 3775,
      "æ³¨æĦıåĬĽ": 3776,
      "Ġreflect": 3777,
      "Ġsingle": 3778,
      "Ġindividual": 3779,
      "åŃ¤ç«ĭ": 3780,
      "åłĨ": 3781,
      "ak": 3782,
      "can": 3783,
      "jor": 3784,
      "Ġcat": 3785,
      "Ġrele": 3786,
      "Ġrest": 3787,
      "ä¹ħ": 3788,
      "æĹ©": 3789,
      "lying": 3790,
      "æķ°åŃ¦": 3791,
      "Ġland": 3792,
      "å¹Ĥ": 3793,
      "ilar": 3794,
      "Ġpropag": 3795,
      "Ġhy": 3796,
      "æĽ´å¿«": 3797,
      "çīĩ": 3798,
      "Ġextern": 3799,
      "urces": 3800,
      "Ġcharge": 3801,
      "æ¦Ĥå¿µçļĦ": 3802,
      "Ġassoci": 3803,
      "è½¯": 3804,
      "Ġlimiting": 3805,
      "ä»£æķ°": 3806,
      "ä»»ä½ķ": 3807,
      "Ġhelp": 3808,
      "åľ°åĿĢ": 3809,
      "ä¸ŃçļĦä½¿çĶ¨æĸ¹å¼ı": 3810,
      "æİ¨æĸŃ": 3811,
      "è§ĴåĬ¨éĩı": 3812,
      "Ġauth": 3813,
      "å¾Īå¤ļ": 3814,
      "Ġcoll": 3815,
      "èį¯": 3816,
      "Ġvalidity": 3817,
      "Ġpathways": 3818,
      "åĬŁèĥ½": 3819,
      "Ġagain": 3820,
      "Ġpreserv": 3821,
      "Ġplanet": 3822,
      "Ġlayer": 3823,
      "è®¤ä¸º": 3824,
      "Ġprecision": 3825,
      "Ġbuil": 3826,
      "æľīåĪ©äºİ": 3827,
      "Ġgeometry": 3828,
      "æľ¯è¯Ń": 3829,
      "FS": 3830,
      "Norm": 3831,
      "ax": 3832,
      "ered": 3833,
      "ups": 3834,
      "Ġmut": 3835,
      "Ġefficient": 3836,
      "æĺ¯åľ¨": 3837,
      "æĹ¶åºĶ": 3838,
      "æľīæĹ¶": 3839,
      "ames": 3840,
      "æĽ´æİ¥è¿ĳ": 3841,
      "Ġmajor": 3842,
      "Ġrates": 3843,
      "ä»İç³»ç»Ł": 3844,
      "Ġunit": 3845,
      "æĮ¯": 3846,
      "åĵįåºĶ": 3847,
      "loy": 3848,
      "rained": 3849,
      "Ġsamples": 3850,
      "Ġpoor": 3851,
      "ç´¯": 3852,
      "Ġadapt": 3853,
      "å·¥åħ·": 3854,
      "è¿ĩç¨ĭä¸Ń": 3855,
      "ossible": 3856,
      "æł¡åĩĨ": 3857,
      "æļĤ": 3858,
      "Ġlike": 3859,
      "pecially": 3860,
      "åŁºæľ¬ç»ĵæŀĦ": 3861,
      "Ġhypothesis": 3862,
      "Ġespecially": 3863,
      "å®ĪæģĴ": 3864,
      "ware": 3865,
      "èĴ": 3866,
      "Ġtext": 3867,
      "è¿Ķ": 3868,
      "ä»ĭ": 3869,
      "çļĦæ¦Ĥå¿µ": 3870,
      "Ġbl": 3871,
      "Ġrepa": 3872,
      "èĥ½åĲ¦": 3873,
      "åľ¨æĸ°": 3874,
      "å¼±": 3875,
      "Ġhum": 3876,
      "Ġhand": 3877,
      "åĨ°": 3878,
      "eli": 3879,
      "æĽ´æľīåĪ©äºİ": 3880,
      "è¿ĩæĭŁåĲĪ": 3881,
      "igen": 3882,
      "æī°": 3883,
      "oses": 3884,
      "çĶµåİĭ": 3885,
      "è½´": 3886,
      "Ġarea": 3887,
      "é«ĺåº¦": 3888,
      "åıĤèĢĥ": 3889,
      "Ġlimited": 3890,
      "å®¹åĻ¨": 3891,
      "æ±ł": 3892,
      "Ġquest": 3893,
      "éĿ¢ç§¯": 3894,
      "ç»Łè®¡éĩı": 3895,
      "Ġmiss": 3896,
      "Ġrepresentation": 3897,
      "Ġerrors": 3898,
      "Ġconsistent": 3899,
      "åģľçķĻ": 3900,
      "Ġalgorithms": 3901,
      "éĢĤçĶ¨èĮĥåĽ´": 3902,
      "Ġsuccess": 3903,
      "Ġsemant": 3904,
      "ST": 3905,
      "eous": 3906,
      "tage": 3907,
      "iss": 3908,
      "Ġbene": 3909,
      "ingu": 3910,
      "Ġtheore": 3911,
      "Ġfl": 3912,
      "Ġfav": 3913,
      "Ġfoc": 3914,
      "Ġfinite": 3915,
      "under": 3916,
      "è¾ŀ": 3917,
      "Ġchain": 3918,
      "åĲĪéĢĤ": 3919,
      "Ġneg": 3920,
      "ä¸įåĲĮçļĦ": 3921,
      "çī©ç§į": 3922,
      "åħĪéªĮ": 3923,
      "Ġcontains": 3924,
      "Ġdifference": 3925,
      "è¿Ļç§įç»ĵæŀĦ": 3926,
      "æķ´ä¸ª": 3927,
      "å½ĵä½ľ": 3928,
      "æ®ĭ": 3929,
      "Ġregul": 3930,
      "æ»¤": 3931,
      "ĠWh": 3932,
      "çĥŃåĬĽåŃ¦": 3933,
      "åİĭåĬĽ": 3934,
      "Ġaddress": 3935,
      "å®Įæķ´è§£éĩĬ": 3936,
      "Ġstatistical": 3937,
      "Ġestimates": 3938,
      "Ġlower": 3939,
      "è¯»åıĸ": 3940,
      "çł´åĿı": 3941,
      "æĭ¥æľī": 3942,
      "Ġminimum": 3943,
      "æİªè¾ŀ": 3944,
      "Ġvelocity": 3945,
      "Ġfocus": 3946,
      "Ġtimes": 3947,
      "rely": 3948,
      "Ġfra": 3949,
      "Ġflu": 3950,
      "åľ¨åĪĨæŀĲ": 3951,
      "åĨµ": 3952,
      "åįģ": 3953,
      "osed": 3954,
      "å®ŀéĻħç§ĳåŃ¦": 3955,
      "çĶµæ±ł": 3956,
      "rength": 3957,
      "çľĭèµ·æĿ¥": 3958,
      "å¤įæķ°": 3959,
      "Ġresist": 3960,
      "Ġcontext": 3961,
      "acter": 3962,
      "æĿ¥çĲĨè§£": 3963,
      "eak": 3964,
      "éĹ®é¢ĺçļĦæł¸å¿ĥ": 3965,
      "è°ĥèĬĤ": 3966,
      "æķĪæŀľ": 3967,
      "ä»£çłģ": 3968,
      "è½¬ç§»": 3969,
      "plicit": 3970,
      "å¦ĤæŀľåħĪ": 3971,
      "å¢ĥä¸Ń": 3972,
      "Ġintermedi": 3973,
      "ä¼łè¾ĵ": 3974,
      "å½¢æĪĲåı¯è¿ģç§»": 3975,
      "å¼ºåº¦": 3976,
      "è¯Ńå¢ĥä¸Ń": 3977,
      "Ġsimilar": 3978,
      "Ġunderlying": 3979,
      "æĸĩä»¶": 3980,
      "Ġmisunder": 3981,
      "Ġcomplete": 3982,
      "æ°´å¹³": 3983,
      "Ġsurv": 3984,
      "èĭ¥è¦ģ": 3985,
      "Ġmeasurements": 3986,
      "Ġpositions": 3987,
      "Ġdefined": 3988,
      "å·¥ç¨ĭéĹ®é¢ĺ": 3989,
      "Ġcalc": 3990,
      "Ġaggregate": 3991,
      "åĨ²çªģ": 3992,
      "å®¢æĪ·": 3993,
      "inguish": 3994,
      "HTTP": 3995,
      "dro": 3996,
      "ove": 3997,
      "¼æŃ¤": 3998,
      "ĵä½ı": 3999,
      "Ġsort": 4000,
      "ese": 4001,
      "Ġlanguage": 4002,
      "å¹¿": 4003,
      "åľ¨å®Įæķ´è§£éĩĬ": 4004,
      "ulations": 4005,
      "æĹ¶ä¸įèĥ½": 4006,
      "æĬĵä½ı": 4007,
      "ots": 4008,
      "å½¼æŃ¤": 4009,
      "Ġprove": 4010,
      "åĨĮ": 4011,
      "Ġaltern": 4012,
      "æĬĬåĩłä¸ª": 4013,
      "æĬĬæľ¯è¯Ń": 4014,
      "æİ¢": 4015,
      "è´Ŀ": 4016,
      "ä¸İå·¥ç¨ĭéĹ®é¢ĺ": 4017,
      "æ¨¡æĭŁ": 4018,
      "çĶŁæĢģ": 4019,
      "ä¸Ģä¸ªè§Ĵåº¦": 4020,
      "Ġnear": 4021,
      "çº¢": 4022,
      "å®ŀéĻħè¯Ńå¢ĥä¸Ń": 4023,
      "ç«ł": 4024,
      "å¹¶ä¸įæĬ½è±¡": 4025,
      "ä»İåŁºæľ¬ç»ĵæŀĦ": 4026,
      "ç¡¬": 4027,
      "æĭī": 4028,
      "éĥ½åı¯èĥ½": 4029,
      "å®ĥä»¬": 4030,
      "æĿ¥çľĭ": 4031,
      "Ġdistinguish": 4032,
      "è§£éĩĬæĽ´æİ¥è¿ĳ": 4033,
      "è¿Ļç§įè¡¨è¾¾": 4034,
      "æķĪçİĩ": 4035,
      "è¿Ļä¸ªçŁ¥è¯Ĩ": 4036,
      "Ġscient": 4037,
      "è¾¹çķĮä¹ĭåīį": 4038,
      "å¦Ĥæŀľä¸įä¾Ŀèµĸ": 4039,
      "Ġfactor": 4040,
      "åĪ¤æĸŃä¸Ģä¸ª": 4041,
      "è¿ŀèµ·æĿ¥": 4042,
      "Ġinterv": 4043,
      "ĠORDER": 4044,
      "æ³¨åĨĮ": 4045,
      "å·¥ä½ľ": 4046,
      "æį¢ä¸Ģä¸ªè§Ĵåº¦": 4047,
      "åĲĮä¸ĢæľºåĪ¶": 4048,
      "åħįçĸ«": 4049,
      "Ġgenerally": 4050,
      "æ¯ıæ¬¡": 4051,
      "ä¿®å¤į": 4052,
      "Ġsubst": 4053,
      "Ġpoints": 4054,
      "éģ¿åħįåıª": 4055,
      "äºĭå®ŀçļĦé£İéĻ©": 4056,
      "äºĭå®ŀè¿ŀæİ¥æĪĲ": 4057,
      "å±Ģéĥ¨äºĭå®ŀè¿ŀæİ¥æĪĲ": 4058,
      "å¾®è°ĥ": 4059,
      "è¿Ļæł·çļĦç»Ħç»ĩæĸ¹å¼ı": 4060,
      "è¿Ļæł·çļĦè§£éĩĬæĽ´æİ¥è¿ĳ": 4061,
      "å®Įæķ´çŁ¥è¯Ĩ": 4062,
      "Ġincreasing": 4063,
      "âĢĿ,": 4064,
      "Ġfeed": 4065,
      "åĽºå®ļæİªè¾ŀ": 4066,
      "ç»Ħç»ĩè¿Ļä¸ªçŁ¥è¯Ĩ": 4067,
      "Ġtrees": 4068,
      "æĶ¾åĽŀå®ŀéĻħè¯Ńå¢ĥä¸Ń": 4069,
      "è¿Ļä¸ªä¸»é¢ĺæĹ¶": 4070,
      "Ġvolcan": 4071,
      "Ġtasks": 4072,
      "è¯ĨåĪ«åĲĮä¸ĢæľºåĪ¶": 4073,
      "Ġmagnetic": 4074,
      "æľºåĻ¨åŃ¦ä¹ł": 4075,
      "å±ŀäºİ": 4076,
      "Ġcount": 4077,
      "éĹ®é¢ĺä¸Ńè¯ĨåĪ«åĲĮä¸ĢæľºåĪ¶": 4078,
      "æĬĬå®ļä¹īæĶ¾åĽŀå®ŀéĻħè¯Ńå¢ĥä¸Ń": 4079,
      "å±Ĥæ¬¡è¿ŀèµ·æĿ¥": 4080,
      "ä¸¥æł¼": 4081,
      "Ġselected": 4082,
      "æ³ĽåĮĸ": 4083,
      "åľ¨è¡¨éĿ¢å®ļä¹ī": 4084,
      "èĥ½æĬĬå±Ģéĥ¨äºĭå®ŀè¿ŀæİ¥æĪĲ": 4085,
      "è§Ĩè§Ĵè§Ĥå¯Ł": 4086,
      "èĥ½åĩıå°ĳæĬĬæľ¯è¯Ń": 4087,
      "åŃ¤ç«ĭäºĭå®ŀçļĦé£İéĻ©": 4088,
      "æ¦Ĥå¿µçļĦéĢĤçĶ¨èĮĥåĽ´": 4089,
      "ä»İç³»ç»Łè§Ĩè§Ĵè§Ĥå¯Ł": 4090,
      "åľ¨æĸ°éĹ®é¢ĺä¸Ńè¯ĨåĪ«åĲĮä¸ĢæľºåĪ¶": 4091,
      "Ġhuman": 4092,
      "æĽ´æľīåĪ©äºİåľ¨æĸ°éĹ®é¢ĺä¸Ńè¯ĨåĪ«åĲĮä¸ĢæľºåĪ¶": 4093,
      "æī°åĬ¨": 4094,
      "åģľçķĻåľ¨è¡¨éĿ¢å®ļä¹ī": 4095,
      "è¿Ļç§įç»ĵæŀĦèĥ½åĩıå°ĳæĬĬæľ¯è¯Ń": 4096,
      "å½ĵä½ľåŃ¤ç«ĭäºĭå®ŀçļĦé£İéĻ©": 4097,
      "åľ¨åĪĨæŀĲè¾¹çķĮä¹ĭåīį": 4098,
      "å®ŀéĻħç§ĳåŃ¦ä¸İå·¥ç¨ĭéĹ®é¢ĺ": 4099,
      "å¦ĤæŀľåħĪæĬĵä½ı": 4100,
      "å½¢æĪĲåı¯è¿ģç§»çļĦçĲĨè§£": 4101,
      "èĭ¥è¦ģå½¢æĪĲåı¯è¿ģç§»çļĦçĲĨè§£": 4102,
      "åľ¨å®Įæķ´è§£éĩĬè¿Ļä¸ªä¸»é¢ĺæĹ¶": 4103,
      "æĹ¶ä¸įèĥ½åģľçķĻåľ¨è¡¨éĿ¢å®ļä¹ī": 4104,
      "æĬĬåĩłä¸ªå±Ĥæ¬¡è¿ŀèµ·æĿ¥": 4105,
      "ä»İåŁºæľ¬ç»ĵæŀĦçľĭ": 4106,
      "è¿Ļç§įè¡¨è¾¾æĽ´æľīåĪ©äºİåľ¨æĸ°éĹ®é¢ĺä¸Ńè¯ĨåĪ«åĲĮä¸ĢæľºåĪ¶": 4107,
      "å¦Ĥæŀľä¸įä¾ĿèµĸåĽºå®ļæİªè¾ŀ": 4108,
      "æį¢ä¸Ģä¸ªè§Ĵåº¦ç»Ħç»ĩè¿Ļä¸ªçŁ¥è¯Ĩ": 4109,
      "è¿Ļæł·çļĦç»Ħç»ĩæĸ¹å¼ıèĥ½æĬĬå±Ģéĥ¨äºĭå®ŀè¿ŀæİ¥æĪĲ": 4110,
      "è¿Ļæł·çļĦè§£éĩĬæĽ´æİ¥è¿ĳå®ŀéĻħç§ĳåŃ¦ä¸İå·¥ç¨ĭéĹ®é¢ĺ": 4111,
      "å®Įæķ´çŁ¥è¯Ĩéĵ¾": 4112,
      "æ¦Ĥå¿µçļĦéĢĤçĶ¨èĮĥåĽ´ä¼ļæĽ´æ¸ħæ¥ļ": 4113,
      "è¿Ļç§įç»ĵæŀĦèĥ½åĩıå°ĳæĬĬæľ¯è¯Ńå½ĵä½ľåŃ¤ç«ĭäºĭå®ŀçļĦé£İéĻ©": 4114,
      "å¦ĤæŀľåħĪæĬĵä½ıéĹ®é¢ĺçļĦæł¸å¿ĥ": 4115,
      "æĬĬåĩłä¸ªå±Ĥæ¬¡è¿ŀèµ·æĿ¥åĲİ": 4116,
      "å¦Ĥæŀľä¸įä¾ĿèµĸåĽºå®ļæİªè¾ŀæĿ¥çĲĨè§£": 4117,
      "æį¢ä¸Ģä¸ªè§Ĵåº¦ç»Ħç»ĩè¿Ļä¸ªçŁ¥è¯ĨçĤ¹": 4118,
      "è¿Ļæł·çļĦç»Ħç»ĩæĸ¹å¼ıèĥ½æĬĬå±Ģéĥ¨äºĭå®ŀè¿ŀæİ¥æĪĲå®Įæķ´çŁ¥è¯Ĩéĵ¾": 4119,
      "è¿Ļæł·çļĦè§£éĩĬæĽ´æİ¥è¿ĳå®ŀéĻħç§ĳåŃ¦ä¸İå·¥ç¨ĭéĹ®é¢ĺä¸ŃçļĦä½¿çĶ¨æĸ¹å¼ı": 4120,
      "ucle": 4121,
      "æ¤": 4122,
      "èĹ": 4123,
      "ĠLEFT": 4124,
      "itle": 4125,
      "Ġbre": 4126,
      "Ġwaves": 4127,
      "ä¸įè¶³": 4128,
      "Ġnucle": 4129,
      "Ġtop": 4130,
      "éĩıçº": 4131,
      "çĽ²": 4132,
      "çĽĲ": 4133,
      "resp": 4134,
      "old": 4135,
      "owled": 4136,
      "Ġmaint": 4137,
      "åİ»": 4138,
      "Ġdeploy": 4139,
      "Ġdiffic": 4140,
      "Ġimple": 4141,
      "Ġmathem": 4142,
      "ibration": 4143,
      "ä½Ĩå¹¶ä¸į": 4144,
      "ä¿ĿæĬ¤": 4145,
      "æµģéĩı": 4146,
      "è§ĦèĮĥ": 4147,
      "Ġarbit": 4148,
      "è¶Ĭå¥½": 4149,
      "Ġregion": 4150,
      "Ġregular": 4151,
      "Ġdetect": 4152,
      "æĸĩç«ł": 4153,
      "Ġrepresents": 4154,
      "æĥħåĨµ": 4155,
      "Ġfunctions": 4156,
      "Ġsignals": 4157,
      "Ġaccum": 4158,
      "Ġprediction": 4159,
      "Ġcombines": 4160,
      "æľªçŁ¥": 4161,
      "æº¶è§£": 4162,
      "Ġextend": 4163,
      "Ġvectors": 4164,
      "Ġcenter": 4165,
      "Ġmolecules": 4166,
      "Ġdistributed": 4167,
      "Ġknown": 4168,
      "Ġresource": 4169,
      "Ġdynamic": 4170,
      "Ġreliability": 4171,
      "Ġunique": 4172,
      "æ¼ĶåĮĸ": 4173,
      "Ġappear": 4174,
      "Ġdatabase": 4175,
      "åĸĦ": 4176,
      "Ġreveal": 4177,
      "Ġdevelop": 4178,
      "Ġcatal": 4179,
      "éĩıçº²": 4180,
      "Ġdifficult": 4181,
      "Ġarbitr": 4182,
      "equ": 4183,
      "mosp": 4184,
      "onds": 4185,
      "Ġcur": 4186,
      "åıī": 4187,
      "Ġpa": 4188,
      "Ġpri": 4189,
      "åħ»": 4190,
      "Ġreact": 4191,
      "Ġnames": 4192,
      "å®ļå¾ĭ": 4193,
      "stream": 4194,
      "åı¯ä»¥çľĭ": 4195,
      "é¢Ĩ": 4196,
      "åĪ°çļĦ": 4197,
      "ument": 4198,
      "mentation": 4199,
      "åģ¶": 4200,
      "Ġwithin": 4201,
      "éķľ": 4202,
      "Ġrock": 4203,
      "åħ¨çĲĥ": 4204,
      "é¢Ħæ³¨åĨĮ": 4205,
      "è®¡ç®Ĺæľº": 4206,
      "less": 4207,
      "Ġsignific": 4208,
      "åŃĹæ®µ": 4209,
      "Ġchoice": 4210,
      "Ġallows": 4211,
      "Ġarticle": 4212,
      "Ġretur": 4213,
      "Ġintegration": 4214,
      "Ġderivatives": 4215,
      "åĬ¨æĢģè§ĦåĪĴ": 4216,
      "agnetic": 4217,
      "Ġcommunication": 4218,
      "è¶ĭåĬ¿": 4219,
      "Ġconstruct": 4220,
      "èŀį": 4221,
      "Ġcomponents": 4222,
      "Ġengineering": 4223,
      "standing": 4224,
      "Ġexternal": 4225,
      "OT": 4226,
      "ian": 4227,
      "pri": 4228,
      "¤åħ¶": 4229,
      "»è¾ĳ": 4230,
      "Ĺä½Ļ": 4231,
      "rec": 4232,
      "Ġdimension": 4233,
      "Ġreport": 4234,
      "éĢ»è¾ĳ": 4235,
      "æĬ¥": 4236,
      "å°¤åħ¶": 4237,
      "æľīåºı": 4238,
      "åĨĹä½Ļ": 4239,
      "Ġalong": 4240,
      "Ġalone": 4241,
      "Ġgo": 4242,
      "è´¹": 4243,
      "æľºæ¢": 4244,
      "ç³»æķ°": 4245,
      "æľĢå¤§": 4246,
      "Ġmeans": 4247,
      "åįķä¸Ģ": 4248,
      "Ġresidual": 4249,
      "å°ĳæķ°": 4250,
      "çłĶç©¶èĢħ": 4251,
      "éħ¶": 4252,
      "Ġconsid": 4253,
      "Ġelectrons": 4254,
      "Ġcorresp": 4255,
      "æĦŁåºĶ": 4256,
      "Ġpositive": 4257,
      "Ġprice": 4258,
      "arthqu": 4259,
      "Ġrank": 4260,
      "Ġgrowth": 4261,
      "Ġideas": 4262,
      "ç»Ŀå¯¹": 4263,
      "Ġmonit": 4264,
      "Ġprimary": 4265,
      "Ġtreatment": 4266,
      "Ġmachine": 4267,
      "ransformer": 4268,
      "æ®ĭå·®": 4269,
      "priate": 4270,
      "æľºæ¢°": 4271,
      "CP": 4272,
      "UM": 4273,
      "ave": 4274,
      "cit": 4275,
      "ling": 4276,
      "mic": 4277,
      "rices": 4278,
      "Ġend": 4279,
      "ļèĩ³": 4280,
      "ä¸´": 4281,
      "Ġsalary": 4282,
      "ences": 4283,
      "aneous": 4284,
      "çĶļèĩ³": 4285,
      "ick": 4286,
      "Ġfirst": 4287,
      "åºķ": 4288,
      "åı¯éĩįå¤į": 4289,
      "astic": 4290,
      "æĢĿ": 4291,
      "åĲĮä¸Ģä¸ª": 4292,
      "Ġwhat": 4293,
      "ä¼ļå½±åĵį": 4294,
      "çĶŁåĳ½": 4295,
      "ç»Łä¸Ģ": 4296,
      "ä¸Ĭåįĩ": 4297,
      "éĺ²": 4298,
      "æĶ¹åĸĦ": 4299,
      "ç¦»æķ£": 4300,
      "ored": 4301,
      "åħ¨å±Ģ": 4302,
      "Ġelectrom": 4303,
      "Ġconserv": 4304,
      "Ġoverall": 4305,
      "version": 4306,
      "Ġapproach": 4307,
      "Ġchecks": 4308,
      "Ġweather": 4309,
      "ograph": 4310,
      "Ġposition": 4311,
      "çªģåıĺ": 4312,
      "Ġjoint": 4313,
      "Ġvoltage": 4314,
      "ç¥ŀç»ıç½ĳç»ľ": 4315,
      "Ġedge": 4316,
      "Ġattention": 4317,
      "æĬĺåıł": 4318,
      "Ġelement": 4319,
      "æ¼Ĥåıĺ": 4320,
      "åĪĿå§ĭåĮĸ": 4321,
      "èĲ½": 4322,
      "åı¶æĸ¯": 4323,
      "Ġinertia": 4324,
      "æĹ¶åºĶåĲĮæĹ¶": 4325,
      "è¿ĶåĽŀ": 4326,
      "è´Ŀåı¶æĸ¯": 4327,
      "èĹı": 4328,
      "è§ĦèĮĥåĮĸ": 4329,
      "é¢ĨåŁŁ": 4330,
      "iod": 4331,
      "ming": 4332,
      "påĢ¼": 4333,
      "ron": 4334,
      "ym": 4335,
      "ata": 4336,
      "Ġsum": 4337,
      "Ġthree": 4338,
      "ale": 4339,
      "Ġfit": 4340,
      "æĺ¯ä¸Ģç§į": 4341,
      "å°½": 4342,
      "éĹŃ": 4343,
      "æĽ´å¼º": 4344,
      "Ġexplicit": 4345,
      "è®¡æķ°": 4346,
      "Ġnecess": 4347,
      "æĶ¾å¤§": 4348,
      "åıįæĺł": 4349,
      "Ġmatrices": 4350,
      "åĲ¦åĪĻ": 4351,
      "æµģç¨ĭ": 4352,
      "æĦıä¹ī": 4353,
      "ä¼ĺåħĪ": 4354,
      "Ġvariance": 4355,
      "Ġappropriate": 4356,
      "Ġrare": 4357,
      "Ġfrequency": 4358,
      "Ġtesting": 4359,
      "è´Łè½½": 4360,
      "èĻļ": 4361,
      "äº¤æį¢": 4362,
      "score": 4363,
      "Ġfinding": 4364,
      "Ġintegr": 4365,
      "Ġprecise": 4366,
      "Ġexisting": 4367,
      "ç¼ĸçłģ": 4368,
      "Ġconstraints": 4369,
      "è½¬åĬ¨æĥ¯": 4370,
      "Ġbasis": 4371,
      "Ġabsor": 4372,
      "éļĲèĹı": 4373,
      "Ġregularization": 4374,
      "è½¬åĬ¨æĥ¯éĩı": 4375,
      "bra": 4376,
      "mbedding": 4377,
      "pid": 4378,
      "ľèī²": 4379,
      "Ġcos": 4380,
      "isions": 4381,
      "Ġmed": 4382,
      "Ġdest": 4383,
      "Ġdensity": 4384,
      "Ġpi": 4385,
      "Ġfals": 4386,
      "åĽ¢": 4387,
      "ceed": 4388,
      "imate": 4389,
      "æĬķ": 4390,
      "å®ļçĲĨ": 4391,
      "å®ŀæķ°": 4392,
      "å¹¶éĿŀ": 4393,
      "å¸¸çĶ¨": 4394,
      "é¢ľèī²": 4395,
      "Ġview": 4396,
      "å¹¶ä¸įçŃīäºİ": 4397,
      "åĢ¾": 4398,
      "Ġsuit": 4399,
      "æİ¥åıĹ": 4400,
      "æłĩçŃ¾": 4401,
      "Ġsystematic": 4402,
      "ä¼¼çĦ¶": 4403,
      "Ġclose": 4404,
      "Ġseparated": 4405,
      "åĽ¾åĥı": 4406,
      "Ġsimpl": 4407,
      "Ġactual": 4408,
      "Ġprocessing": 4409,
      "ĠNOT": 4410,
      "Ġvariation": 4411,
      "Ġrapid": 4412,
      "Ġtempor": 4413,
      "Ġobjects": 4414,
      "æļ´": 4415,
      "Ġcapacit": 4416,
      "lished": 4417,
      "Ġmomentum": 4418,
      "Ġrows": 4419,
      "æ¿Ģæ´»": 4420,
      "Ġtrue": 4421,
      "åĮ»åŃ¦": 4422,
      "é©±": 4423,
      "roscopic": 4424,
      "Ġsemantics": 4425,
      "ru": 4426,
      "¨èĥ": 4427,
      "åķ": 4428,
      "ľç´¢": 4429,
      "Ġsyn": 4430,
      "Ġsomet": 4431,
      "alle": 4432,
      "order": 4433,
      "Ġeas": 4434,
      "éĢĨ": 4435,
      "åĪĨç»Ħ": 4436,
      "å¿Ĩ": 4437,
      "uning": 4438,
      "Ġproof": 4439,
      "Ġalge": 4440,
      "Ġgal": 4441,
      "ription": 4442,
      "Ġexcess": 4443,
      "èĢĮå¿½çķ¥": 4444,
      "æĸ¹æ¡Ī": 4445,
      "å¤įçİ°": 4446,
      "æ°¸": 4447,
      "åįķåħĥ": 4448,
      "æĿ¥æºĲ": 4449,
      "Ġdistance": 4450,
      "æİ¥æĶ¶": 4451,
      "ead": 4452,
      "åĬłéĢŁåº¦": 4453,
      "è®Ńç»ĥæķ°æį®": 4454,
      "Ġatmosp": 4455,
      "æ··æĿĤ": 4456,
      "è®°å¿Ĩ": 4457,
      "Ġelectro": 4458,
      "Ġdecreas": 4459,
      "è¶Ĭå¤ļ": 4460,
      "åĿĩåĢ¼": 4461,
      "Ġclear": 4462,
      "å·²çŁ¥": 4463,
      "åĲĳéĩıç©ºéĹ´": 4464,
      "æĮīçħ§": 4465,
      "å¥½çļĦ": 4466,
      "Ġmultiplication": 4467,
      "Ġspecial": 4468,
      "Ġexperimental": 4469,
      "Ġdepartments": 4470,
      "ç¥ŀç»ıåħĥ": 4471,
      "Ġresources": 4472,
      "èĨ¨èĥ": 4473,
      "æĲľç´¢": 4474,
      "Ġdownstream": 4475,
      "Ġadditional": 4476,
      "Ġcycle": 4477,
      "Ġexpressed": 4478,
      "Ġapproximately": 4479,
      "Ġreplace": 4480,
      "éĺŁåĪĹ": 4481,
      "Ġhydro": 4482,
      "Ġalgebra": 4483,
      "èĨ¨èĥĢ": 4484,
      "IST": 4485,
      "kn": 4486,
      "lated": 4487,
      "time": 4488,
      "Ġy": 4489,
      "Ġign": 4490,
      "Ġsal": 4491,
      "åĪł": 4492,
      "çļĦç»ĵæŀĦ": 4493,
      "Ġpossible": 4494,
      "Ġtheory": 4495,
      "Ġfar": 4496,
      "Ġinstr": 4497,
      "æĪĲä¸º": 4498,
      "istent": 4499,
      "åĨ·": 4500,
      "ä¼ļå¢ŀåĬł": 4501,
      "è¿ĩæ»¤": 4502,
      "ĠIf": 4503,
      "ä½ĵç§¯": 4504,
      "urally": 4505,
      "Ġsecond": 4506,
      "Ġdependencies": 4507,
      "åıįé¦Ī": 4508,
      "è¿Ļæł·åı¯ä»¥": 4509,
      "ä»£ä»·": 4510,
      "æ··åĲĪ": 4511,
      "Ġfactors": 4512,
      "ä»įåı¯èĥ½": 4513,
      "åħ¶ä¸Ń": 4514,
      "ç»´åº¦": 4515,
      "ç»´æĬ¤": 4516,
      "ç£ģåľº": 4517,
      "åĮħæĭ¬": 4518,
      "èĥĮæĻ¯": 4519,
      "Ġidentical": 4520,
      "è¯Ńè¨Ģæ¨¡åŀĭ": 4521,
      "èĨľ": 4522,
      "Ġresponse": 4523,
      "Ġdrift": 4524,
      "è£Ĥ": 4525,
      "æĽ¿ä»£": 4526,
      "æŃ»éĶģ": 4527,
      "Ġprobabilities": 4528,
      "Ġequivalent": 4529,
      "é»ĳ": 4530,
      "Ġrepair": 4531,
      "Ġfavor": 4532,
      "owledge": 4533,
      "Ġprior": 4534,
      "allel": 4535,
      "bs": 4536,
      "cation": 4537,
      "den": 4538,
      "ily": 4539,
      "ience": 4540,
      "ogy": 4541,
      "pot": 4542,
      "«æıı": 4543,
      "Ġax": 4544,
      "Ġtables": 4545,
      "Ġcurrent": 4546,
      "ording": 4547,
      "Ġany": 4548,
      "Ġfall": 4549,
      "Ġop": 4550,
      "Ġearthqu": 4551,
      "Ġstrength": 4552,
      "ets": 4553,
      "åĽłåŃĲ": 4554,
      "ä¼ļæĺ¾èĳĹ": 4555,
      "æī«æıı": 4556,
      "Ġmaxim": 4557,
      "Ġneural": 4558,
      "illions": 4559,
      "ensive": 4560,
      "Ġsoil": 4561,
      "æľºåĪ¶ä¸İ": 4562,
      "å°ĳéĩı": 4563,
      "inks": 4564,
      "Ġquality": 4565,
      "Ġcache": 4566,
      "Ġstructural": 4567,
      "Ġperiod": 4568,
      "Ġplate": 4569,
      "Ġembedding": 4570,
      "äº§çĶŁçļĦ": 4571,
      "Ġparallel": 4572,
      "åĲĮä¸Ģæ¡Ĩæŀ¶": 4573,
      "Ġfree": 4574,
      "æ¶ī": 4575,
      "Ġactivity": 4576,
      "Ġoverfit": 4577,
      "Ġcolum": 4578,
      "Ġchoices": 4579,
      "regist": 4580,
      "Ġmagnitude": 4581,
      "Ġgradients": 4582,
      "Ġsteps": 4583,
      "Ġdistributions": 4584,
      "æī©å±ķ": 4585,
      "çĽĳæİ§": 4586,
      "æĶ¾åľ¨åĲĮä¸Ģæ¡Ĩæŀ¶": 4587,
      "Ġagainst": 4588,
      "å®¢æĪ·ç«¯": 4589,
      "Ġarbitrary": 4590,
      "åĪłéĻ¤": 4591,
      "Dropout": 4592,
      "hood": 4593,
      "Ġtable": 4594,
      "Ġtrig": 4595,
      "åı²": 4596,
      "åĪĽ": 4597,
      "çļĦä¿¡æģ¯": 4598,
      "Ġfin": 4599,
      "Ġwarm": 4600,
      "Ġweak": 4601,
      "æķĻ": 4602,
      "åĴĮåı¯è§Ĥå¯Łç»ĵæŀľ": 4603,
      "Ġlat": 4604,
      "ulate": 4605,
      "è¡¥": 4606,
      "ä¸ºéĽ¶": 4607,
      "Ġalread": 4608,
      "æĽ´å®¹æĺĵ": 4609,
      "åħ³èģĶ": 4610,
      "æī¿": 4611,
      "Ġchrom": 4612,
      "å¤ļç§į": 4613,
      "ä»İè¿ĻéĩĮ": 4614,
      "åı¯èĥ½è®©": 4615,
      "åıĳéĢģ": 4616,
      "åĩºæ¨¡åŀĭ": 4617,
      "åıįå¤į": 4618,
      "å½¢çĬ¶": 4619,
      "Ġenough": 4620,
      "åĪĨæŀĲæĬĬå®ļä¹ī": 4621,
      "è¿Ļç§įæİ¨çĲĨ": 4622,
      "è¿Ļç§įåĪĨæŀĲæĬĬå®ļä¹ī": 4623,
      "åĽłæŃ¤åĪ¤æĸŃä¸Ģä¸ª": 4624,
      "Ġpret": 4625,
      "Ġdifferenti": 4626,
      "Ġadds": 4627,
      "è¾¹çķĮå¿ħé¡»": 4628,
      "æĹ¶éĹ´å°ºåº¦": 4629,
      "æ£ĢæŁ¥æĿ¡ä»¶åĴĮ": 4630,
      "æĪĲç«ĭæĿ¡ä»¶": 4631,
      "åıĳçĶŁåľ¨": 4632,
      "åĮºåĪĨçĽ¸ä¼¼": 4633,
      "æĸ¹å¼ıæľīåĬ©äºİ": 4634,
      "ç»ĵè®ºæĹ¶åºĶåĲĮæĹ¶": 4635,
      "ç»ĵè®ºèĢĮå¿½çķ¥": 4636,
      "Ġmetab": 4637,
      "ä¸Ģèµ·çĲĨè§£": 4638,
      "äººç±»": 4639,
      "å¾Īå¤§": 4640,
      "éªĮè¯ģéĽĨ": 4641,
      "Ġeffective": 4642,
      "Ġdiss": 4643,
      "Ġstores": 4644,
      "éĢĴæİ¨": 4645,
      "Ġjo": 4646,
      "Ġavoid": 4647,
      "Ġdefines": 4648,
      "Ġconverg": 4649,
      "Ġexplan": 4650,
      "Ġtransformations": 4651,
      "Ġindexes": 4652,
      "çŃīä»·çļĦæ¦Ĥå¿µ": 4653,
      "åİĨåı²": 4654,
      "Ġatomic": 4655,
      "Ġprogramming": 4656,
      "åĤ¬åĮĸåīĤ": 4657,
      "è®°ä½ıç»ĵè®ºèĢĮå¿½çķ¥": 4658,
      "Ġepoch": 4659,
      "Ġextremely": 4660,
      "Ġframe": 4661,
      "éģ¿åħįåıªè®°ä½ıç»ĵè®ºèĢĮå¿½çķ¥": 4662,
      "ä½Ĩå¹¶ä¸įçŃīä»·çļĦæ¦Ĥå¿µ": 4663,
      "åı¯ä»¥çľĭåĩºæ¨¡åŀĭ": 4664,
      "Ġpict": 4665,
      "è¿Ļæł·åı¯ä»¥éģ¿åħįåıªè®°ä½ıç»ĵè®ºèĢĮå¿½çķ¥": 4666,
      "æľºåĪ¶ä¸İè¾¹çķĮå¿ħé¡»": 4667,
      "æĶ¾åľ¨åĲĮä¸Ģæ¡Ĩæŀ¶éĩĮ": 4668,
      "åĴĮåı¯è§Ĥå¯Łç»ĵæŀľæĶ¾åľ¨åĲĮä¸Ģæ¡Ĩæŀ¶éĩĮ": 4669,
      "Ġalready": 4670,
      "ä»İè¿ĻéĩĮåı¯ä»¥çľĭåĩºæ¨¡åŀĭ": 4671,
      "è¿Ļç§įæİ¨çĲĨæĸ¹å¼ıæľīåĬ©äºİ": 4672,
      "è¿Ļç§įåĪĨæŀĲæĬĬå®ļä¹īåĴĮåı¯è§Ĥå¯Łç»ĵæŀľæĶ¾åľ¨åĲĮä¸Ģæ¡Ĩæŀ¶éĩĮ": 4673,
      "åĽłæŃ¤åĪ¤æĸŃä¸Ģä¸ªç»ĵè®ºæĹ¶åºĶåĲĮæĹ¶": 4674,
      "æ£ĢæŁ¥æĿ¡ä»¶åĴĮåĽłæŀľéĵ¾": 4675,
      "åĮºåĪĨçĽ¸ä¼¼ä½Ĩå¹¶ä¸įçŃīä»·çļĦæ¦Ĥå¿µ": 4676,
      "è¿Ļæł·åı¯ä»¥éģ¿åħįåıªè®°ä½ıç»ĵè®ºèĢĮå¿½çķ¥æĪĲç«ĭæĿ¡ä»¶": 4677,
      "æľºåĪ¶ä¸İè¾¹çķĮå¿ħé¡»ä¸Ģèµ·çĲĨè§£": 4678,
      "è¿Ļç§įæİ¨çĲĨæĸ¹å¼ıæľīåĬ©äºİåĮºåĪĨçĽ¸ä¼¼ä½Ĩå¹¶ä¸įçŃīä»·çļĦæ¦Ĥå¿µ": 4679,
      "åĽłæŃ¤åĪ¤æĸŃä¸Ģä¸ªç»ĵè®ºæĹ¶åºĶåĲĮæĹ¶æ£ĢæŁ¥æĿ¡ä»¶åĴĮåĽłæŀľéĵ¾": 4680,
      "SQL": 4681,
      "aps": 4682,
      "lation": 4683,
      "pr": 4684,
      "Ġreference": 4685,
      "ä¸įåĨį": 4686,
      "ä¸Ģç»Ħ": 4687,
      "Ġconvex": 4688,
      "utes": 4689,
      "å°Ķ": 4690,
      "å¾ħ": 4691,
      "æĢ§åĪĨæŀĲ": 4692,
      "rict": 4693,
      "çĽ¸è¿ĳ": 4694,
      "ology": 4695,
      "Ġmaking": 4696,
      "å¤ļé¡¹": 4697,
      "å¤§åŀĭ": 4698,
      "Ġheav": 4699,
      "ç³»ç»ŁçļĦ": 4700,
      "çŃīå¼ı": 4701,
      "Ġacid": 4702,
      "Ġaccept": 4703,
      "åĿĹ": 4704,
      "Ġrob": 4705,
      "æĹłéĻĲ": 4706,
      "è¿ŀéĢļ": 4707,
      "Ġinterval": 4708,
      "çī¹åĪ«": 4709,
      "çī¹æ®": 4710,
      "Ġsets": 4711,
      "å¯¼ä½ĵ": 4712,
      "çĥŃéĩı": 4713,
      "Ġkin": 4714,
      "value": 4715,
      "æµĭè¯ķéĽĨ": 4716,
      "è¿½æ±Ĥ": 4717,
      "æķĪåºĶéĩı": 4718,
      "Ġpreserve": 4719,
      "ç¬¬": 4720,
      "åįıè°ĥ": 4721,
      "Ġalgorithm": 4722,
      "å¡ĳ": 4723,
      "Ġnaturally": 4724,
      "Ġlabels": 4725,
      "æ²īç§¯": 4726,
      "Ġcombinations": 4727,
      "Ġexpectation": 4728,
      "æĽ²çº¿": 4729,
      "æīįèĥ½": 4730,
      "Ġlook": 4731,
      "Ġradiation": 4732,
      "Ġcharacter": 4733,
      "ä»ĭè´¨": 4734,
      "Ġregulatory": 4735,
      "åķĨ": 4736,
      "çī¹æ®Ĭ": 4737,
      "efficient": 4738,
      "ied": 4739,
      "lor": 4740,
      "mer": 4741,
      "tain": 4742,
      "éŁ": 4743,
      "ä¸¢": 4744,
      "Ġage": 4745,
      "Ġtor": 4746,
      "Ġmix": 4747,
      "Ġdel": 4748,
      "Ġdropout": 4749,
      "Ġpers": 4750,
      "åħ¼": 4751,
      "Ġindu": 4752,
      "ä¸įä¸Ģå®ļ": 4753,
      "iding": 4754,
      "åĪĨåĪ«": 4755,
      "æĿ¿": 4756,
      "Ġproced": 4757,
      "åı¯ä»¥å¸®åĬ©": 4758,
      "æ³Ħ": 4759,
      "åįł": 4760,
      "æŁĵ": 4761,
      "çºł": 4762,
      "Ġunkn": 4763,
      "éĥ¨éĹ¨": 4764,
      "iving": 4765,
      "ç»ĵæŀĦåĴĮ": 4766,
      "ç¡®è®¤": 4767,
      "Ġsource": 4768,
      "Ġshared": 4769,
      "Ġformation": 4770,
      "é¢Ħè®Ńç»ĥ": 4771,
      "Ġque": 4772,
      "Ġgene": 4773,
      "è¿Ĳç®Ĺ": 4774,
      "æ®ĸ": 4775,
      "versal": 4776,
      "Ġoptimizer": 4777,
      "æ´»åĬ¨": 4778,
      "Ġwere": 4779,
      "urrency": 4780,
      "Ġtrade": 4781,
      "Ġoperation": 4782,
      "åĤ¨åŃĺ": 4783,
      "æī¹éĩı": 4784,
      "Ġentire": 4785,
      "Ġcalibration": 4786,
      "Ġinside": 4787,
      "range": 4788,
      "æľįåĬ¡åĻ¨": 4789,
      "Ġknowledge": 4790,
      "Ġvisible": 4791,
      "Ġwindow": 4792,
      "Ġavailable": 4793,
      "Ġflux": 4794,
      "æ¤į": 4795,
      "Ġelectromagnetic": 4796,
      "å¤ļé¡¹å¼ı": 4797,
      "DNS": 4798,
      "cent": 4799,
      "io": 4800,
      "run": 4801,
      "rate": 4802,
      "çĵ": 4803,
      "Ġcause": 4804,
      "erate": 4805,
      "åı°": 4806,
      "ances": 4807,
      "ä»½": 4808,
      "åĲŀ": 4809,
      "åĽ°": 4810,
      "æĹ¢": 4811,
      "utions": 4812,
      "rams": 4813,
      "è§£çłģ": 4814,
      "Ġwho": 4815,
      "stood": 4816,
      "èĢĹ": 4817,
      "æīĭ": 4818,
      "ume": 4819,
      "åģ¥": 4820,
      "éĶĢ": 4821,
      "ç«ŀ": 4822,
      "å¹¶ä¸įèĥ½": 4823,
      "è½®": 4824,
      "Ġcode": 4825,
      "éĥ½å¤§éĩı": 4826,
      "åıĺåĮĸçļĦ": 4827,
      "çŃīå¾ħ": 4828,
      "è®¾ç½®": 4829,
      "odynam": 4830,
      "loom": 4831,
      "Ġlock": 4832,
      "Ġpost": 4833,
      "Ġroot": 4834,
      "udes": 4835,
      "çŁ¥éģĵ": 4836,
      "Ġelectrical": 4837,
      "Ġpartial": 4838,
      "Ġcreated": 4839,
      "Ġpredictions": 4840,
      "Ġpaths": 4841,
      "è¯Ħè®º": 4842,
      "å®Įåħ¨çĽ¸åĲĮ": 4843,
      "çī©ä½ĵçļĦ": 4844,
      "å¤©æ°Ķ": 4845,
      "Ġcontinuity": 4846,
      "Ġconditioning": 4847,
      "Ġmovement": 4848,
      "Ġelements": 4849,
      "è½¬æį¢æĪĲ": 4850,
      "è½¬åĮĸä¸º": 4851,
      "Ġnatural": 4852,
      "Ġgroup": 4853,
      "Ġadjustment": 4854,
      "æĭĨæĪĲ": 4855,
      "èį¯çī©": 4856,
      "åıĤèĢĥç³»": 4857,
      "Ġnecessarily": 4858,
      "Ġgalax": 4859,
      "ESC": 4860,
      "¹ģ": 4861,
      "ç¹ģ": 4862,
      "ĠV": 4863,
      "ĵæī": 4864,
      "Ŀè¯ķ": 4865,
      "ä¸ĸ": 4866,
      "ones": 4867,
      "ination": 4868,
      "Ġsqu": 4869,
      "Ġmedi": 4870,
      "Ġfore": 4871,
      "Ġwell": 4872,
      "user": 4873,
      "ä¸įç¨³å®ļ": 4874,
      "Ġeigen": 4875,
      "Ġnut": 4876,
      "Ġbeg": 4877,
      "Ġbeing": 4878,
      "etics": 4879,
      "å°Ŀè¯ķ": 4880,
      "Ġonce": 4881,
      "ä¼ļéļı": 4882,
      "riven": 4883,
      "term": 4884,
      "åĲİæľŁ": 4885,
      "æĭĵæī": 4886,
      "åıªåľ¨": 4887,
      "aylor": 4888,
      "è¾ĥå¤§": 4889,
      "èĩªèº«": 4890,
      "Ġimage": 4891,
      "Ġimply": 4892,
      "Ġshift": 4893,
      "ecton": 4894,
      "Ġmechanisms": 4895,
      "Ġquick": 4896,
      "å½¢æĪĲçļĦ": 4897,
      "è¶³ä»¥": 4898,
      "Ġactually": 4899,
      "Ġoptimum": 4900,
      "ĠDNA": 4901,
      "Ġestab": 4902,
      "Ġnormally": 4903,
      "Ġchoosing": 4904,
      "Ġidentify": 4905,
      "Ġquantity": 4906,
      "æ°§åĮĸè¿ĺåİŁ": 4907,
      "Ġinsert": 4908,
      "èĤ²": 4909,
      "Ġdeeper": 4910,
      "Ġconnectivity": 4911,
      "Ġinvol": 4912,
      "Ġfault": 4913,
      "Ġnonl": 4914,
      "æłĩåĩĨåĮĸ": 4915,
      "å¡ŀ": 4916,
      "åĳĺå·¥": 4917,
      "Ġcarry": 4918,
      "æŃ£åĪĻåĮĸ": 4919,
      "å¹ĤçŃī": 4920,
      "Ġtheorem": 4921,
      "Ġresistance": 4922,
      "æĬ¥åĳĬ": 4923,
      "Ġjointly": 4924,
      "Ġmedical": 4925,
      "Ġfalse": 4926,
      "åĢ¾åĲĳ": 4927,
      "price": 4928,
      "éŁ³": 4929,
      "Ġtorque": 4930,
      "æ³Ħæ¼ı": 4931,
      "Ġnutri": 4932,
      "æĭĵæīĳ": 4933,
      "Ġquickly": 4934,
      "ection": 4935,
      "earch": 4936,
      "kens": 4937,
      "vant": 4938,
      "ygen": 4939,
      "¾çĹħ": 4940,
      "ıè§Ĥ": 4941,
      "Ġtend": 4942,
      "ancy": 4943,
      "å®ıè§Ĥ": 4944,
      "ark": 4945,
      "Ġant": 4946,
      "åĮĢ": 4947,
      "Ġstored": 4948,
      "åľ¨åħ·ä½ĵ": 4949,
      "å¼ł": 4950,
      "å®ļä½į": 4951,
      "ists": 4952,
      "Ġalter": 4953,
      "å¸¸çĶ¨äºİ": 4954,
      "Ġmoder": 4955,
      "æĽ´å¤§": 4956,
      "rier": 4957,
      "urb": 4958,
      "Ġmaps": 4959,
      "çĶŁäº§": 4960,
      "æľĢçŁŃ": 4961,
      "ä¾¿": 4962,
      "Ġmerely": 4963,
      "åı¯èĥ½åĩºçİ°": 4964,
      "Ġdead": 4965,
      "Ġcool": 4966,
      "ĠSUM": 4967,
      "éĥ½èĥ½": 4968,
      "Ġdependence": 4969,
      "åĪ«å¿½çķ¥": 4970,
      "ayes": 4971,
      "Ġcontr": 4972,
      "Ġcontent": 4973,
      "æĻ¶": 4974,
      "å¹³æĸ¹": 4975,
      "loor": 4976,
      "change": 4977,
      "å½ĵæĪĲ": 4978,
      "Ġrecurren": 4979,
      "Ġregulation": 4980,
      "Ġspect": 4981,
      "Ġordered": 4982,
      "éĿŀçº¿æĢ§": 4983,
      "Ġexpans": 4984,
      "ĠDESC": 4985,
      "å¾®å°ı": 4986,
      "Ġdispl": 4987,
      "Ġsolub": 4988,
      "æĮĩæķ°": 4989,
      "èĭ¥å¹²": 4990,
      "åľ¨å®ŀéĻħéĹ®é¢ĺä¸Ń": 4991,
      "åºĵåŃĺ": 4992,
      "Ġspecified": 4993,
      "å¸¦æĿ¥": 4994,
      "Ġallowing": 4995,
      "çĸ¾çĹħ": 4996,
      "éļ¾ä»¥": 4997,
      "Ġquantum": 4998,
      "Ġconnected": 4999,
      "Ġinvari": 5000,
      "Ġrecovery": 5001,
      "Ġdynamics": 5002,
      "Ġgroups": 5003,
      "Ġacceleration": 5004,
      "Ġwritten": 5005,
      "Ġinitialization": 5006,
      "ç®¡çĲĨ": 5007,
      "é£Łçī©": 5008,
      "Ġauthor": 5009,
      "Ġmissing": 5010,
      "Ġintermediate": 5011,
      "Ġrapidly": 5012,
      "Ġsometimes": 5013,
      "registration": 5014,
      "Ġpicture": 5015,
      "Ġnonlinear": 5016,
      "TL": 5017,
      "Wh": 5018,
      "ares": 5019,
      "fers": 5020,
      "keli": 5021,
      "«æĺŁ": 5022,
      "Ġye": 5023,
      "Ġrig": 5024,
      "Ġtri": 5025,
      "iness": 5026,
      "Ġcare": 5027,
      "Ġcertain": 5028,
      "Ġsat": 5029,
      "Ġthese": 5030,
      "alization": 5031,
      "çļĦéĹ®é¢ĺ": 5032,
      "åĲ¯": 5033,
      "Ġwas": 5034,
      "Ġinference": 5035,
      "omial": 5036,
      "è¯ĳ": 5037,
      "Ġoth": 5038,
      "Ġstars": 5039,
      "Ġhist": 5040,
      "Ġallo": 5041,
      "ably": 5042,
      "è¿ĩå¤§": 5043,
      "ä¿ĥ": 5044,
      "éľ²": 5045,
      "éľĩ": 5046,
      "å·¨": 5047,
      "izing": 5048,
      "çĶµæŀģ": 5049,
      "å¹¶ä¸įä¿Ŀè¯ģ": 5050,
      "æ°¨": 5051,
      "è´¨å¿ĥ": 5052,
      "Ġresearch": 5053,
      "è¾ĥå°ı": 5054,
      "inding": 5055,
      "oding": 5056,
      "isms": 5057,
      "æĹ¶éĹ´åĨħ": 5058,
      "Ġconcrete": 5059,
      "Ġconcurrency": 5060,
      "åĪĨå¸ĥå¼ı": 5061,
      "Ġdetection": 5062,
      "åħīè°±": 5063,
      "Ġequations": 5064,
      "Ġexpression": 5065,
      "Ġconfidence": 5066,
      "ä»·åĢ¼": 5067,
      "åĬŁæķĪ": 5068,
      "Ġscales": 5069,
      "åħ±åĲĮå½±åĵį": 5070,
      "æĵįä½ľç³»ç»Ł": 5071,
      "Ġinfinite": 5072,
      "å¤©ä½ĵ": 5073,
      "Ġexample": 5074,
      "Ġparticip": 5075,
      "æ·±å±Ĥ": 5076,
      "Ġqueries": 5077,
      "Ġfailed": 5078,
      "Ġprotect": 5079,
      "æĺłå°ĦåĪ°": 5080,
      "Ġintroduce": 5081,
      "Ġgravity": 5082,
      "Ġconcentration": 5083,
      "Ġefficiently": 5084,
      "Ġscientific": 5085,
      "æĢĿæĥ³": 5086,
      "é©±åĬ¨": 5087,
      "Ġexcessive": 5088,
      "åĽ°éļ¾": 5089,
      "kelihood": 5090,
      "Ġothers": 5091,
      "Bootstrap": 5092,
      "des": 5093,
      "ients": 5094,
      "nomial": 5095,
      "ted": 5096,
      "¶é¢": 5097,
      "çĩ": 5098,
      "ĬæĸŃ": 5099,
      "ä¸²": 5100,
      "Ġte": 5101,
      "Ġbro": 5102,
      "Ġbus": 5103,
      "let": 5104,
      "Ġwould": 5105,
      "ä¸įåıĺéĩı": 5106,
      "è¯ĬæĸŃ": 5107,
      "Ġtokens": 5108,
      "Ġstar": 5109,
      "epoch": 5110,
      "Ġhot": 5111,
      "åı¯ä»¥è®©": 5112,
      "éĩįè¯ķ": 5113,
      "éĩįéĩĩæł·": 5114,
      "åĲİéªĮ": 5115,
      "rent": 5116,
      "æĿ¡ä»¶æ¦Ĥçİĩ": 5117,
      "æŃ£å¸¸": 5118,
      "ĠSt": 5119,
      "Ġsoft": 5120,
      "Ġlocks": 5121,
      "åī¯": 5122,
      "ĠCon": 5123,
      "ç»ıåħ¸": 5124,
      "Ġcapt": 5125,
      "å¢ŀå¼º": 5126,
      "éļıæľºåĮĸ": 5127,
      "ä¸įæĺ¯åĲĮä¸Ģ": 5128,
      "åĩĨç¡®çİĩ": 5129,
      "æ³¢éķ¿": 5130,
      "çº§ç»ĵæŀĦ": 5131,
      "Ġaccording": 5132,
      "å¸ĮæľĽ": 5133,
      "Ġscaling": 5134,
      "Ġcombine": 5135,
      "å»ºæ¨¡": 5136,
      "Ġestimation": 5137,
      "Ġfrequently": 5138,
      "ç»Ļå®ļ": 5139,
      "Ġstock": 5140,
      "Ġspecific": 5141,
      "åİŁåŃĲæł¸": 5142,
      "Ġpopulations": 5143,
      "çĶµåĬ¿å·®": 5144,
      "æ°§åĮĸç¢³": 5145,
      "Ġsupports": 5146,
      "èĪį": 5147,
      "Ġinclude": 5148,
      "Ġpolynomial": 5149,
      "Ġdecomposition": 5150,
      "Ġrelease": 5151,
      "Ġpreserves": 5152,
      "Ġaxis": 5153,
      "çĵ¶é¢": 5154,
      "çĩĥ": 5155,
      "Ġbusiness": 5156,
      "çĵ¶é¢Ī": 5157,
      "Embedding": 5158,
      "back": 5159,
      "body": 5160,
      "cl": 5161,
      "ger": 5162,
      "gest": 5163,
      "ll": 5164,
      "tical": 5165,
      "¸åŃĺ": 5166,
      "ç¿": 5167,
      "Ġair": 5168,
      "Ġaround": 5169,
      "Ġtang": 5170,
      "Ġtecton": 5171,
      "atible": 5172,
      "åĲĲ": 5173,
      "lex": 5174,
      "Ġflex": 5175,
      "è®®": 5176,
      "äºī": 5177,
      "idden": 5178,
      "å¹¸åŃĺ": 5179,
      "Ġgas": 5180,
      "Ġgives": 5181,
      "æĽ´ç¨³å®ļ": 5182,
      "Ġcomplic": 5183,
      "plies": 5184,
      "osen": 5185,
      "æĪĸåħ¶ä»ĸ": 5186,
      "çĶµæµģ": 5187,
      "æŀĦéĢł": 5188,
      "æŃ£æĢģ": 5189,
      "Ġforces": 5190,
      "Ġimp": 5191,
      "åĬłæĿĥ": 5192,
      "Ġrocks": 5193,
      "Ġproduced": 5194,
      "æµģä½ĵ": 5195,
      "æµģåĬ¨": 5196,
      "çľŁçļĦ": 5197,
      "Ġsystematically": 5198,
      "Ġdecisions": 5199,
      "æ¦ĤçİĩåĪĨå¸ĥ": 5200,
      "Ġsimulation": 5201,
      "Ġregression": 5202,
      "Ġrequired": 5203,
      "å¼ķåħ¥": 5204,
      "Ġconfoun": 5205,
      "Ġstudent": 5206,
      "Ġrandomness": 5207,
      "validation": 5208,
      "weight": 5209,
      "éĤ£": 5210,
      "äº¤åıī": 5211,
      "ĠHTTP": 5212,
      "Ġdiag": 5213,
      "Ġdiagn": 5214,
      "Ġbiological": 5215,
      "Ġavg": 5216,
      "Ġmeaning": 5217,
      "æī©å®¹": 5218,
      "Ġgrows": 5219,
      "Ġfailures": 5220,
      "ä¸¥éĩį": 5221,
      "Ġoutputs": 5222,
      "oxide": 5223,
      "Ġanswer": 5224,
      "Ġlandsc": 5225,
      "Ġdevelopment": 5226,
      "Ġsignificant": 5227,
      "Ġmonitoring": 5228,
      "ography": 5229,
      "æļ´éľ²": 5230,
      "Ġexplanation": 5231,
      "åħ¼å®¹": 5232,
      "åĲŀåĲĲ": 5233,
      "cription": 5234,
      "eled": 5235,
      "for": 5236,
      "ld": 5237,
      "spec": 5238,
      "uction": 5239,
      "Ĵåħ¥": 5240,
      "ories": 5241,
      "Ġdimens": 5242,
      "Ġfine": 5243,
      "ä¸Ģå±Ĥ": 5244,
      "Ġbeen": 5245,
      "Ġlit": 5246,
      "çĶ¨æĿ¥": 5247,
      "æĪĲåĪĨ": 5248,
      "Ġhidden": 5249,
      "åıĺå¼Ĥ": 5250,
      "quid": 5251,
      "åºĶè¯¥": 5252,
      "åĪ°è¾¾": 5253,
      "Ġmap": 5254,
      "åŃ¦çĶŁ": 5255,
      "æķ°æį®åĴĮ": 5256,
      "æıĴåħ¥": 5257,
      "åı¯èĥ½äº§çĶŁ": 5258,
      "Ġunits": 5259,
      "ç»ĵæŀľçļĦ": 5260,
      "Ġresol": 5261,
      "Ġcontrib": 5262,
      "Ġsuper": 5263,
      "ç³»ç»ŁæĢ§": 5264,
      "è¾ĥé«ĺ": 5265,
      "ired": 5266,
      "Ġstrateg": 5267,
      "èĩªè½¬": 5268,
      "èĩªçĶ±": 5269,
      "é¡µ": 5270,
      "Ġshar": 5271,
      "è°ĥçĶ¨": 5272,
      "è½¬å½ķ": 5273,
      "åıįåºĶçī©": 5274,
      "éĽĨæĪĲ": 5275,
      "Ġrecord": 5276,
      "Ġclimate": 5277,
      "arning": 5278,
      "é£İåĮĸ": 5279,
      "æ¯ıä¸ĢæŃ¥": 5280,
      "Ġequal": 5281,
      "Ġfrequencies": 5282,
      "Ġcreates": 5283,
      "åĮĸåŃ¦åıįåºĶ": 5284,
      "æº¶æ¶²": 5285,
      "æī¹æ¬¡": 5286,
      "Ġrises": 5287,
      "Ġorganisms": 5288,
      "Ġconditional": 5289,
      "è¶ħè¿ĩ": 5290,
      "Ġderivative": 5291,
      "çŃĶæ¡Ī": 5292,
      "Ġgeneralization": 5293,
      "è¡¨çİ°åĩº": 5294,
      "Ġoxygen": 5295,
      "Ġcoordinate": 5296,
      "Ġinstead": 5297,
      "Ġreflects": 5298,
      "è½¯ä»¶": 5299,
      "Ġbenefit": 5300,
      "Ġmathemat": 5301,
      "æĥħåĨµä¸ĭ": 5302,
      "Ġpair": 5303,
      "Ġsumm": 5304,
      "å°½éĩı": 5305,
      "Ġlatency": 5306,
      "Ġconvergence": 5307,
      "åķĨåĵģ": 5308,
      "æ¤įçī©": 5309,
      "ç«ŀäºī": 5310,
      "ç¿»": 5311,
      "Ġdimensions": 5312,
      "Ġstrategies": 5313,
      "bran": 5314,
      "cial": 5315,
      "ned": 5316,
      "ock": 5317,
      "ring": 5318,
      "rics": 5319,
      "é¥": 5320,
      "Ġion": 5321,
      "ä¸ĩ": 5322,
      "å®¶": 5323,
      "usible": 5324,
      "åı¯ä¿¡": 5325,
      "ä¹¦": 5326,
      "ased": 5327,
      "çĽĬ": 5328,
      "åĩŃ": 5329,
      "ä¼ļäº§çĶŁ": 5330,
      "Ġgood": 5331,
      "æľĢé«ĺ": 5332,
      "çĶµè·¯": 5333,
      "çĶµå®¹åĻ¨": 5334,
      "Ġdeg": 5335,
      "Ġshif": 5336,
      "ode": 5337,
      "Ġevolution": 5338,
      "æ±ĩ": 5339,
      "Ġadding": 5340,
      "æŃ¥éķ¿": 5341,
      "Ġformul": 5342,
      "Ġinteractions": 5343,
      "ä¼łæĦŁ": 5344,
      "å¤ĦçĲĨåĻ¨": 5345,
      "Ġrecom": 5346,
      "Ġdecision": 5347,
      "åģıå¯¼": 5348,
      "ç»´æĮģ": 5349,
      "Ġsubs": 5350,
      "çĿ£": 5351,
      "Ġraw": 5352,
      "lows": 5353,
      "isease": 5354,
      "Ġstudents": 5355,
      "äººä½ĵ": 5356,
      "äººå·¥": 5357,
      "åŁŁåĲį": 5358,
      "Ġcollect": 5359,
      "Ġcollection": 5360,
      "Ġsolution": 5361,
      "æĿĥè¡¡": 5362,
      "Ġmainly": 5363,
      "Ġscalar": 5364,
      "äºĮèĢħ": 5365,
      "æĴŀ": 5366,
      "Ġaverages": 5367,
      "æ¶Īè´¹": 5368,
      "Ġboundary": 5369,
      "Ġgraphs": 5370,
      "ä¸īç»´": 5371,
      "Ġorbital": 5372,
      "Ġredund": 5373,
      "Ġ>=": 5374,
      "Ġdivision": 5375,
      "çĽĳçĿ£": 5376,
      "Ġprevent": 5377,
      "åħ¸åŀĭ": 5378,
      "Ġplausible": 5379,
      "Ġgravit": 5380,
      "çĻ¾åĪĨ": 5381,
      "Ġprotein": 5382,
      "Ġnegative": 5383,
      "Ġvolcanic": 5384,
      "Ġdeployment": 5385,
      "å°¤åħ¶éľĢè¦ģ": 5386,
      "Ġchromat": 5387,
      "Ġdeadlock": 5388,
      "æ°¨åŁº": 5389,
      "Ġcomplicated": 5390,
      "brane": 5391,
      "Transformer": 5392,
      "aging": 5393,
      "dep": 5394,
      "tuning": 5395,
      "word": 5396,
      "ĪåĢ¼": 5397,
      "Ĺåı£": 5398,
      "ç»©": 5399,
      "Ġfile": 5400,
      "ä¸įå¹³è¡¡": 5401,
      "omal": 5402,
      "æĹ§": 5403,
      "æķ°åĪĹ": 5404,
      "Ġconne": 5405,
      "è¦ģåĴĮ": 5406,
      "Ġcomment": 5407,
      "æĪĲç»©": 5408,
      "stock": 5409,
      "istrib": 5410,
      "quer": 5411,
      "Ġmoving": 5412,
      "æµ®": 5413,
      "åį¡": 5414,
      "åį«æĺŁ": 5415,
      "æĽ´å¼ºè°ĥ": 5416,
      "resh": 5417,
      "éľĢè¦ģç»ĵåĲĪ": 5418,
      "empot": 5419,
      "çĶµä½į": 5420,
      "æ¸¸": 5421,
      "åĢį": 5422,
      "åıĳå°Ħ": 5423,
      "æŀĦæĪĲ": 5424,
      "Ġsea": 5425,
      "Ġsec": 5426,
      "è´¨åŃĲ": 5427,
      "æŁ¥æī¾": 5428,
      "Ġresam": 5429,
      "åĽŀæĶ¶": 5430,
      "éĺĪåĢ¼": 5431,
      "ands": 5432,
      "Ġimmun": 5433,
      "Ġshape": 5434,
      "å¼ĢéĶĢ": 5435,
      "åĲĮæĹ¶ä¹Ł": 5436,
      "Ġtransaction": 5437,
      "éļıæľºæĢ§": 5438,
      "ellar": 5439,
      "ç©ºéĹ´ä¸Ń": 5440,
      "çĥĪ": 5441,
      "åĿĩè¡¡": 5442,
      "æ»ĳ": 5443,
      "Ġexpensive": 5444,
      "äººç¾¤": 5445,
      "å¾®è§Ĥ": 5446,
      "Ġserver": 5447,
      "æ¸©åº¦åĴĮ": 5448,
      "Ġhighly": 5449,
      "æ´»æĢ§": 5450,
      "çªĹåı£": 5451,
      "Ġphase": 5452,
      "Ġoperating": 5453,
      "æıĲä¾ĽäºĨ": 5454,
      "ä¿ĿæĮģä¸įåıĺ": 5455,
      "Ġcosts": 5456,
      "çº¦æĿŁä¼ĺåĮĸ": 5457,
      "ç¼©æĶ¾": 5458,
      "åĵĪå¸Įè¡¨": 5459,
      "scale": 5460,
      "æī¹å¤§å°ı": 5461,
      "struct": 5462,
      "Ġrotational": 5463,
      "Ġconverts": 5464,
      "Ġprogress": 5465,
      "Ġinfluences": 5466,
      "Ġhashing": 5467,
      "éĥ½ä¼ļå½±åĵį": 5468,
      "ä¹ĺæ³ķ": 5469,
      "Ġslower": 5470,
      "Ġrelatively": 5471,
      "å¹²é¢Ħ": 5472,
      "èģļåĲĪçī©": 5473,
      "Ġactivation": 5474,
      "Ġterms": 5475,
      "ç¨³åģ¥": 5476,
      "Ġplaces": 5477,
      "Ġproteins": 5478,
      "è´ªå¿ĥç®Ĺæ³ķ": 5479,
      "Ġdevi": 5480,
      "æļĤæĹ¶": 5481,
      "Ġsubstant": 5482,
      "åģ¶çĦ¶": 5483,
      "Ġopen": 5484,
      "Ġpretrained": 5485,
      "Ġrobust": 5486,
      "Ġestablish": 5487,
      "Ġcontrast": 5488,
      "Ġexpansion": 5489,
      "äº¤åıīéªĮè¯ģ": 5490,
      "Ġlandscape": 5491,
      "ä¼łæĦŁåĻ¨": 5492,
      "API": 5493,
      "hip": 5494,
      "line": 5495,
      "light": 5496,
      "°æĴŀ": 5497,
      "èı": 5498,
      "Ġ2": 5499,
      "onential": 5500,
      "ator": 5501,
      "alf": 5502,
      "oriz": 5503,
      "Ġmess": 5504,
      "å®½": 5505,
      "Ġanomal": 5506,
      "rob": 5507,
      "edim": 5508,
      "åľĪ": 5509,
      "Ġstellar": 5510,
      "ash": 5511,
      "åĪĨè£Ĥ": 5512,
      "Ġwhose": 5513,
      "Ġprom": 5514,
      "Ġhalf": 5515,
      "Ġhoriz": 5516,
      "state": 5517,
      "åı¯ä»¥è¡¨ç¤º": 5518,
      "æĽ´å¤įæĿĤ": 5519,
      "Ġexchange": 5520,
      "Ġcompact": 5521,
      "Ġcomposition": 5522,
      "æīĵ": 5523,
      "èĢĮä¸į": 5524,
      "osis": 5525,
      "Ġchains": 5526,
      "æķ°æį®æľ¬èº«": 5527,
      "æķ°æį®è§Ħæ¨¡": 5528,
      "Ġunchan": 5529,
      "åįķæ¬¡": 5530,
      "ĠIts": 5531,
      "Ġsufficient": 5532,
      "æİ¥åı£": 5533,
      "æĻ°": 5534,
      "Ġleast": 5535,
      "raining": 5536,
      "è®Ńç»ĥä¸Ń": 5537,
      "Ġpreregistration": 5538,
      "æ¸ħæĻ°": 5539,
      "ception": 5540,
      "Ġtranscription": 5541,
      "æĺ¯åĲ¦ä¸İ": 5542,
      "Ġobtain": 5543,
      "ä¾ĿèµĸåĴĮ": 5544,
      "è§Ĥå¯ŁåĪ°": 5545,
      "éļıæľºè¿ĩç¨ĭ": 5546,
      "é£ŀ": 5547,
      "èĥ½å¤Łåľ¨": 5548,
      "åĩ½æķ°åĢ¼": 5549,
      "è¯ķéªĮ": 5550,
      "ç»´æķ°": 5551,
      "ĠEX": 5552,
      "Ġexponential": 5553,
      "æŀģç«¯": 5554,
      "Ġeru": 5555,
      "å¾®çĶŁçī©": 5556,
      "äºĴçĽ¸": 5557,
      "Ġsolutions": 5558,
      "Ġreasonable": 5559,
      "ç¢°æĴŀ": 5560,
      "å¹³åĿĩåĢ¼": 5561,
      "Ġmemor": 5562,
      "Ġampl": 5563,
      "Ġspaces": 5564,
      "Ġfew": 5565,
      "Ġmeasured": 5566,
      "Ġtravel": 5567,
      "äºĮæ°§åĮĸç¢³": 5568,
      "Ġstopping": 5569,
      "åĨĻåħ¥": 5570,
      "Ġclassification": 5571,
      "åĵĪå¸Įåĩ½æķ°": 5572,
      "Ġexplor": 5573,
      "Ġliquid": 5574,
      "Ġquantities": 5575,
      "æ³¨æĦıçļĦæĺ¯": 5576,
      "åįıè®®": 5577,
      "ç¼ĸåı·": 5578,
      "Ġdomin": 5579,
      "åĢĻéĢī": 5580,
      "æ¼Ĥç§»": 5581,
      "Ġthermodynam": 5582,
      "Ġactivations": 5583,
      "Ġbalancing": 5584,
      "Ġpublished": 5585,
      "Ġplanetary": 5586,
      "Ġbuild": 5587,
      "Ġquestions": 5588,
      "ç¡¬ä»¶": 5589,
      "Ġconsider": 5590,
      "éĺ²æŃ¢": 5591,
      "Ġfavorable": 5592,
      "Ġearthquakes": 5593,
      "æ¶īåıĬ": 5594,
      "Ġunknown": 5595,
      "Ġinsertion": 5596,
      "Ġsolubility": 5597,
      "Ġcapture": 5598,
      "çĻ¾åĪĨä¹ĭ": 5599,
      "èıĮ": 5600,
      "Ġanomalies": 5601,
      "AT": 5602,
      "did": 5603,
      "ht": 5604,
      "ma": 5605,
      "tl": 5606,
      "¨è®º": 5607,
      "Ġice": 5608,
      "Ġversion": 5609,
      "ä¸ĵ": 5610,
      "itect": 5611,
      "çļĦå±Ģéĥ¨": 5612,
      "Ġpolic": 5613,
      "å®¤": 5614,
      "Ġbootstrap": 5615,
      "Ġthems": 5616,
      "è®¨è®º": 5617,
      "äºĳ": 5618,
      "Ġlif": 5619,
      "Ġline": 5620,
      "uling": 5621,
      "ä¸ªä½ĵ": 5622,
      "éĻ·": 5623,
      "otic": 5624,
      "Ġcandid": 5625,
      "æľīå¤ļ": 5626,
      "chitect": 5627,
      "elves": 5628,
      "ä¼ļæĬĬ": 5629,
      "ä¼ļåĩºçİ°": 5630,
      "åħ³å¿ĥ": 5631,
      "ä½ĵç³»": 5632,
      "urs": 5633,
      "æī£": 5634,
      "Ġchosen": 5635,
      "Ġneigh": 5636,
      "å¤§æķ°": 5637,
      "å¤§å°ºåº¦": 5638,
      "Ġidempot": 5639,
      "iven": 5640,
      "Ġcover": 5641,
      "ayer": 5642,
      "ä¹Łèĥ½": 5643,
      "Ġleak": 5644,
      "Ġloop": 5645,
      "è¿Ľç¨ĭ": 5646,
      "cycle": 5647,
      "Ġremo": 5648,
      "ĠBayes": 5649,
      "æīĢéľĢ": 5650,
      "å±Ĥçº§": 5651,
      "åĩıå°ı": 5652,
      "Ġperfect": 5653,
      "thesis": 5654,
      "æ´ŀ": 5655,
      "çĽ¸åħ³æĢ§": 5656,
      "è¶Ĭå¤§": 5657,
      "Ġkeeps": 5658,
      "Ġstructured": 5659,
      "åħīçº¿": 5660,
      "çº§æķ°": 5661,
      "çº¿æĢ§åıĺæį¢": 5662,
      "Ġnois": 5663,
      "è®¾è®¡åĴĮ": 5664,
      "èĻ½": 5665,
      "Ġdioxide": 5666,
      "ä¹ĭéĹ´çļĦåħ³ç³»": 5667,
      "æŃ£ç¡®æĢ§": 5668,
      "æ¶Īæģ¯": 5669,
      "Ġpresent": 5670,
      "Ġparticles": 5671,
      "Ġvolume": 5672,
      "Ġemployee": 5673,
      "Ġorganic": 5674,
      "åĲįç§°": 5675,
      "åıłåĬł": 5676,
      "Ġrecogn": 5677,
      "Ġresponses": 5678,
      "èĩªçĦ¶éĢīæĭ©": 5679,
      "éĩĳé¢Ŀ": 5680,
      "éĩĳå±ŀ": 5681,
      "åĩ¸æĢ§": 5682,
      "Ġsearches": 5683,
      "çģ«": 5684,
      "è·¨è¶Ĭ": 5685,
      "Ġenvironmental": 5686,
      "Ġfuller": 5687,
      "Ġruntime": 5688,
      "è£ħ": 5689,
      "Ġthermal": 5690,
      "Ġinterpretation": 5691,
      "Ġpolymer": 5692,
      "Ġassignment": 5693,
      "Ġassociation": 5694,
      "ĠWhat": 5695,
      "çĽ²æ³ķ": 5696,
      "Ġimplementation": 5697,
      "Ġsuitable": 5698,
      "Ġalgebraic": 5699,
      "Ġmaximum": 5700,
      "æŁĵèī²": 5701,
      "Ġyears": 5702,
      "Ġallocation": 5703,
      "specific": 5704,
      "æ°¨åŁºéħ¸": 5705,
      "Ġhorizon": 5706,
      "Ġthemselves": 5707,
      "Ġneighb": 5708,
      "ATP": 5709,
      "RNA": 5710,
      "co": 5711,
      "iver": 5712,
      "title": 5713,
      "yle": 5714,
      "onal": 5715,
      "onding": 5716,
      "ino": 5717,
      "erior": 5718,
      "Ġsedim": 5719,
      "Ġthresh": 5720,
      "ises": 5721,
      "anning": 5722,
      "å®¡": 5723,
      "Ġbur": 5724,
      "Ġbody": 5725,
      "icle": 5726,
      "omer": 5727,
      "ä¸ĢæĿ¡": 5728,
      "idge": 5729,
      "å¼¦": 5730,
      "çĽĺ": 5731,
      "åĩĿ": 5732,
      "èĢ¦": 5733,
      "èĢĲ": 5734,
      "Ġalle": 5735,
      "å¹¶åľ¨": 5736,
      "Ġcompression": 5737,
      "Ġcompares": 5738,
      "uration": 5739,
      "å¤ļæł·": 5740,
      "å¤ļéĩį": 5741,
      "duct": 5742,
      "æ¨¡åŀĭçļĦ": 5743,
      "å¹¶ä¸įä»£è¡¨": 5744,
      "Ġunus": 5745,
      "éĥ½æĺ¯": 5746,
      "artment": 5747,
      "article": 5748,
      "Ġhere": 5749,
      "orth": 5750,
      "åĬĽçŁ©": 5751,
      "éģį": 5752,
      "åıįèĢĮ": 5753,
      "å¹³éĿ¢": 5754,
      "åĬłçĥŃ": 5755,
      "åĬłå¯Ĩ": 5756,
      "Ġshare": 5757,
      "ä¸ĭçļĦ": 5758,
      "éĢļå¸¸ä¼ļ": 5759,
      "æ±½": 5760,
      "è¿ĽåĮĸ": 5761,
      "åĳ¼": 5762,
      "æµģåĴĮ": 5763,
      "åľ°è¡¨": 5764,
      "aving": 5765,
      "Ġcaches": 5766,
      "æ±Ĥè§£": 5767,
      "Ġconcurrent": 5768,
      "è¿Ĳè¾ĵ": 5769,
      "Ġperm": 5770,
      "Ġpercent": 5771,
      "Ġarchitect": 5772,
      "éĢīæĭ©æĢ§": 5773,
      "Ġclients": 5774,
      "Ġabove": 5775,
      "Ġassess": 5776,
      "Ġdetail": 5777,
      "åĲĮä¸Ģç§į": 5778,
      "velength": 5779,
      "Ġequality": 5780,
      "èĥ½éĩıåĴĮ": 5781,
      "çľŁå®ŀåľºæĻ¯": 5782,
      "Ġseries": 5783,
      "çº¿æĢ§æĸ¹ç¨ĭ": 5784,
      "cont": 5785,
      "èį¡": 5786,
      "ç£ģéĢļ": 5787,
      "values": 5788,
      "Ġmembrane": 5789,
      "èĢĮä¸įæĺ¯åıª": 5790,
      "Ġcontrolled": 5791,
      "æľªè§ģ": 5792,
      "æķ´ä½ĵç»ĵæŀĦ": 5793,
      "æī¾åĪ°": 5794,
      "Ġobjective": 5795,
      "æµ·æ°´": 5796,
      "è¿ŀç»ŃæĢ§": 5797,
      "æ¶ĪèĢĹ": 5798,
      "åŁºåĽłè¡¨è¾¾": 5799,
      "Ġcircular": 5800,
      "æ·±åº¦": 5801,
      "Ġexists": 5802,
      "èĦ±": 5803,
      "ç§įç¾¤ä¸Ń": 5804,
      "Ġcrust": 5805,
      "Ġoxidation": 5806,
      "èĲ¥": 5807,
      "Ġweights": 5808,
      "Ġdrug": 5809,
      "ä¸Ńå¿ĥæŀģéĻĲ": 5810,
      "Ġwait": 5811,
      "éĿĻæŃ¢": 5812,
      "æĳĬ": 5813,
      "Ġassociated": 5814,
      "Ġmutation": 5815,
      "èĴ¸": 5816,
      "Ġmisunderstood": 5817,
      "æİ¢ç´¢": 5818,
      "Ġbreak": 5819,
      "Ġcatalyst": 5820,
      "åħ¨å±ĢæľĢä¼ĺ": 5821,
      "Ġconservation": 5822,
      "éĥ½å¤§éĩıä½¿çĶ¨": 5823,
      "Ġposterior": 5824,
      "Ġrecurrence": 5825,
      "Ġmathematical": 5826,
      "department": 5827,
      "ayerNorm": 5828,
      "DH": 5829,
      "From": 5830,
      "dependent": 5831,
      "late": 5832,
      "åĭ": 5833,
      "çĪ": 5834,
      "Ġ3": 5835,
      "Ġtur": 5836,
      "Ġspl": 5837,
      "enance": 5838,
      "Ġmillions": 5839,
      "Ġdam": 5840,
      "Ġdisease": 5841,
      "itives": 5842,
      "ä»¤": 5843,
      "ä»ª": 5844,
      "çļĦå¯¹è±¡": 5845,
      "Ġbar": 5846,
      "usions": 5847,
      "åĴĮæ¨¡åŀĭ": 5848,
      "ä¹İ": 5849,
      "imin": 5850,
      "åĪĨæ¸ħ": 5851,
      "åĪĨå±Ĥ": 5852,
      "åĪĨæ¸ħçļĦ": 5853,
      "åĪĨè¯į": 5854,
      "è¿Ļå¹¶ä¸įæĬ½è±¡": 5855,
      "è¿Ļåľ¨å®ŀéĻħéĹ®é¢ĺä¸Ń": 5856,
      "è¦ģçľĭåĪ°": 5857,
      "è¦ģåĪĨæ¸ħçļĦ": 5858,
      "éĩıåĴĮ": 5859,
      "å°ģ": 5860,
      "åıĺå¾Ĺ": 5861,
      "å¹¶è¡Į": 5862,
      "chastic": 5863,
      "åºĶåĮºåĪĨçļĦæĺ¯": 5864,
      "ĠAPI": 5865,
      "æĬĬæķ´ä½ĵç»ĵæŀĦ": 5866,
      "åı¯ä»¥æĬĬ": 5867,
      "åı¯ä»¥åĩıå°ĳ": 5868,
      "ifferen": 5869,
      "ols": 5870,
      "ormalization": 5871,
      "è´¦": 5872,
      "ç¨Ģ": 5873,
      "ç³ĸ": 5874,
      "plied": 5875,
      "osyn": 5876,
      "éľĢè¦ģåĲĮæĹ¶": 5877,
      "åĲĪå¹¶": 5878,
      "Ġneur": 5879,
      "åı¯èĥ½åľ¨": 5880,
      "Ġunse": 5881,
      "ç»ĵæŀĦçļĦ": 5882,
      "é«ĺç»´": 5883,
      "åĽŀè·¯": 5884,
      "èĩªåıĳ": 5885,
      "iring": 5886,
      "Ġenz": 5887,
      "Ġcommonly": 5888,
      "Ġlead": 5889,
      "odes": 5890,
      "åĪĻæĬĬ": 5891,
      "ä½Ĩä¸įèĥ½": 5892,
      "åĲĮæĹ¶è¦ģåĴĮ": 5893,
      "åıĹä½ĵ": 5894,
      "Ġtransformation": 5895,
      "åºĶçĶ¨éĩĮ": 5896,
      "Ġproducing": 5897,
      "Ġmechanical": 5898,
      "å¦Ĥæŀľç»§ç»Ń": 5899,
      "Ġformal": 5900,
      "ä¸įèĥ½å¿½çķ¥": 5901,
      "åĨįå¾Ģ": 5902,
      "éļıæľºåıĺéĩı": 5903,
      "Ġplace": 5904,
      "ä»»åĬ¡éĩĮ": 5905,
      "å·¥èµĦ": 5906,
      "åĩ½æķ°åľ¨": 5907,
      "æį¢åıĸ": 5908,
      "åĿĩåĮĢ": 5909,
      "åıĸåĢ¼": 5910,
      "èº«ä»½": 5911,
      "Ġgenerate": 5912,
      "åŃĺåľ¨çļĦ": 5913,
      "Ġmetrics": 5914,
      "æĶ¾åĪ°çľŁå®ŀåľºæĻ¯": 5915,
      "ĠMo": 5916,
      "åħĪä»İæķ´ä½ĵ": 5917,
      "Ġanalyses": 5918,
      "Ġadded": 5919,
      "Ġtraject": 5920,
      "Ġordering": 5921,
      "è¯Ħä»·": 5922,
      "è¿Ľä¸ĢæŃ¥è¯´": 5923,
      "åľ¨å®ŀéĻħåºĶçĶ¨éĩĮ": 5924,
      "å¸¸è§ģè¯¯åĮºåľ¨äºİ": 5925,
      "ĠRe": 5926,
      "å±ķå¼ĢçĲĨè§£": 5927,
      "å±ķå¼ĢæĿ¥çľĭ": 5928,
      "Ġstochastic": 5929,
      "éģĹæ¼ı": 5930,
      "Ġclassic": 5931,
      "ç¼©å°ı": 5932,
      "scill": 5933,
      "æĢ»ä½ĵæĿ¥çľĭ": 5934,
      "åı¦å¤ĸä¸įèĥ½å¿½çķ¥": 5935,
      "Ġlikelihood": 5936,
      "Ġgreat": 5937,
      "æ·±ä¸Ģå±Ĥ": 5938,
      "è¶ħæĹ¶": 5939,
      "lier": 5940,
      "Ġconstrained": 5941,
      "Ġenvironments": 5942,
      "æĮĩæłĩåĴĮ": 5943,
      "Ġfailure": 5944,
      "Ġcounts": 5945,
      "æ¡Ĩæŀ¶çľĭ": 5946,
      "è¿ĺéľĢè¦ģæ³¨æĦıçļĦæĺ¯": 5947,
      "Ġreliable": 5948,
      "åı¦ä¸Ģä¸ªå¸¸è§ģè¯¯åĮºæĺ¯": 5949,
      "Ġideal": 5950,
      "è¿ĻéĩĮåºĶåĮºåĪĨçļĦæĺ¯": 5951,
      "éĢıéķľ": 5952,
      "Ġinterpreted": 5953,
      "Ġwavelength": 5954,
      "åħħåĪĨ": 5955,
      "çĨµ": 5956,
      "Ġpropagation": 5957,
      "Ġquestion": 5958,
      "éĿ¢ç§¯æĪĸ": 5959,
      "ĠWhen": 5960,
      "Ġmisunderstanding": 5961,
      "çĶŁæĢģç³»ç»Ł": 5962,
      "Ġcorresponds": 5963,
      "èĻļæĭŁ": 5964,
      "Ġintegrals": 5965,
      "Ġcosmic": 5966,
      "Ġatmosphere": 5967,
      "Ġoverfitting": 5968,
      "Ġframework": 5969,
      "çĽ¸è¿ĳæ¦Ĥå¿µåĮºåĪĨå¼Ģ": 5970,
      "ç¹ģæ®ĸ": 5971,
      "åľ¨åħ·ä½ĵä»»åĬ¡éĩĮ": 5972,
      "æľĢçŁŃè·¯": 5973,
      "çĩĥçĥ": 5974,
      "Ġtangible": 5975,
      "Ġconfounding": 5976,
      "Ġshifts": 5977,
      "Ġredundancy": 5978,
      "Ġgravitational": 5979,
      "å°¤åħ¶éľĢè¦ģåĪĨæ¸ħ": 5980,
      "Ġconnections": 5981,
      "åĲĮæĹ¶ä¹Łè¦ģçľĭåĪ°": 5982,
      "éģįåİĨ": 5983,
      "åĳ¼åĲ¸": 5984,
      "èĲ¥åħ»": 5985,
      "è¿Ļåľ¨å®ŀéĻħéĹ®é¢ĺä¸Ńå¹¶ä¸įæĬ½è±¡": 5986,
      "è¦ģåĪĨæ¸ħçļĦä¸ĢçĤ¹æĺ¯": 5987,
      "æĬĬæķ´ä½ĵç»ĵæŀĦå±ķå¼ĢæĿ¥çľĭ": 5988,
      "Ġunseen": 5989,
      "åĲĮæĹ¶è¦ģåĴĮçĽ¸è¿ĳæ¦Ĥå¿µåĮºåĪĨå¼Ģ": 5990,
      "å¦Ĥæŀľç»§ç»Ńå±ķå¼ĢçĲĨè§£": 5991,
      "åĨįå¾Ģæ·±ä¸Ģå±Ĥ": 5992,
      "æĶ¾åĪ°çľŁå®ŀåľºæĻ¯éĩĮ": 5993,
      "åħĪä»İæķ´ä½ĵæ¡Ĩæŀ¶çľĭ": 5994,
      "åı¦å¤ĸä¸įèĥ½å¿½çķ¥çļĦæĺ¯": 5995,
      "å°¤åħ¶éľĢè¦ģåĪĨæ¸ħçļĦæĺ¯": 5996,
      "åĨįå¾Ģæ·±ä¸Ģå±Ĥçľĭ": 5997,
      "One": 5998,
      "TCP": 5999,
      "aut": 6000,
      "aces": 6001,
      "driven": 6002,
      "ij": 6003,
      "nel": 6004,
      "vis": 6005,
      "xt": 6006,
      "¾ç¨ĭ": 6007,
      "æĤ": 6008,
      "Ġ0": 6009,
      "Ġ5": 6010,
      "Ġaug": 6011,
      "Ġtren": 6012,
      "atial": 6013,
      "Ġsa": 6014,
      "Ġself": 6015,
      "Ġmer": 6016,
      "Ġmig": 6017,
      "itivity": 6018,
      "å®³": 6019,
      "ctive": 6020,
      "Ġfood": 6021,
      "è¯¾ç¨ĭ": 6022,
      "Ġoscill": 6023,
      "åĴĮçİ¯å¢ĥ": 6024,
      "åĴĮæľºåĻ¨åŃ¦ä¹ł": 6025,
      "å¹ħ": 6026,
      "å¸Ī": 6027,
      "åĲĮä½į": 6028,
      "Ġcomes": 6029,
      "Ġhard": 6030,
      "stract": 6031,
      "strained": 6032,
      "istics": 6033,
      "å¹¶æŁ¥": 6034,
      "ategy": 6035,
      "Ġmob": 6036,
      "æµİ": 6037,
      "olar": 6038,
      "Ġexplo": 6039,
      "éĢļçĶ¨": 6040,
      "éĢļè·¯": 6041,
      "æľºçĲĨ": 6042,
      "éľĢè¦ģéĩįæĸ°": 6043,
      "éĩįè§Ĩ": 6044,
      "æĪĸæĽ´": 6045,
      "å¤ļæķ°": 6046,
      "å¤ļæ¬¡": 6047,
      "æķ°æį®åĪĨå¸ĥ": 6048,
      "å±±": 6049,
      "çŃĽ": 6050,
      "åŃĲéĹ®é¢ĺ": 6051,
      "ĠThey": 6052,
      "çī©çļĦ": 6053,
      "åıĺåĮĸçİĩ": 6054,
      "Ġchanged": 6055,
      "Ġmodeled": 6056,
      "è¾ĥä½İ": 6057,
      "Ġstrategy": 6058,
      "ultaneous": 6059,
      "odies": 6060,
      "ä¸ĭæ¸¸": 6061,
      "ibatch": 6062,
      "Ġevents": 6063,
      "Ġtranslation": 6064,
      "ä½įäºİ": 6065,
      "Ġround": 6066,
      "ç»ıæµİ": 6067,
      "ç»ĨèĬĤ": 6068,
      "å¢ŀå¤§": 6069,
      "æĮģä¹ħ": 6070,
      "éļıæľºæĬ½æł·": 6071,
      "Ġrecon": 6072,
      "Ġdecoding": 6073,
      "Ġability": 6074,
      "Ġgradu": 6075,
      "éĵ¾è·¯": 6076,
      "Ġsimultaneous": 6077,
      "åĽłæŀľåĽ¾": 6078,
      "Ġequation": 6079,
      "Ġobservation": 6080,
      "åĪĨåŃĲçļĦ": 6081,
      "æ´»åĮĸ": 6082,
      "åĩłä¹İ": 6083,
      "Ġamino": 6084,
      "æī§è¡Įè®¡åĪĴ": 6085,
      "rows": 6086,
      "Ġspread": 6087,
      "Ġspatial": 6088,
      "Ġconclusions": 6089,
      "æº¶è´¨": 6090,
      "Ġidentifies": 6091,
      "Ġminer": 6092,
      "Ġstatement": 6093,
      "Ġcauses": 6094,
      "Ġdesigned": 6095,
      "çŁŃæľŁ": 6096,
      "ropy": 6097,
      "Ġcircu": 6098,
      "Ġpredicts": 6099,
      "Ġbiased": 6100,
      "Ġoceanic": 6101,
      "æĲ¬": 6102,
      "Ġ19": 6103,
      "Ġredox": 6104,
      "è°ĥæİ§ç½ĳç»ľ": 6105,
      "æĭ¥å¡ŀ": 6106,
      "ç¼ºå°ĳ": 6107,
      "æĿĥéĩįè¡°åĩı": 6108,
      "Ġappears": 6109,
      "Ġreceive": 6110,
      "Ġreceiver": 6111,
      "Ġservice": 6112,
      "Ġservices": 6113,
      "Ġshortest": 6114,
      "çĨĶ": 6115,
      "Ġmicroscopic": 6116,
      "Ġanalyz": 6117,
      "Ġconcentr": 6118,
      "Ġpropagate": 6119,
      "Ġaddresses": 6120,
      "Ġcontextual": 6121,
      "Ġsurviv": 6122,
      "çº¢ç§»": 6123,
      "Ġfactorization": 6124,
      "Ġintervals": 6125,
      "Ġaccumul": 6126,
      "Ġsimpler": 6127,
      "ISTS": 6128,
      "åĨ·åį´": 6129,
      "Ġfreez": 6130,
      "Ġjoin": 6131,
      "ä¸¢å¤±": 6132,
      "æĿ¿åĿĹ": 6133,
      "æ°§åĮĸè¿ĺåİŁåıįåºĶ": 6134,
      "Ġnutrients": 6135,
      "Ġinvariant": 6136,
      "Ġsediment": 6137,
      "Ġsplit": 6138,
      "ifferent": 6139,
      "åĲĮä½įç´ł": 6140,
      "å¹¶æŁ¥éĽĨ": 6141,
      ");": 6142,
      ");`.": 6143,
      "Elect": 6144,
      "ailed": 6145,
      "cal": 6146,
      "faces": 6147,
      "loss": 6148,
      "vari": 6149,
      "å³": 6150,
      "èļ": 6151,
      "Ġ<": 6152,
      "Ġions": 6153,
      "Ġtitle": 6154,
      "iny": 6155,
      "atter": 6156,
      "Ġsym": 6157,
      "Ġthough": 6158,
      "Ġdig": 6159,
      "ites": 6160,
      "Ġrevers": 6161,
      "è§¦": 6162,
      "Ġear": 6163,
      "ä¸ĢèĪ": 6164,
      "åľĨ": 6165,
      "Ġstation": 6166,
      "Ġstabil": 6167,
      "ident": 6168,
      "uting": 6169,
      "å¸Ĥ": 6170,
      "åĲĮæŃ¥": 6171,
      "ote": 6172,
      "å¯Į": 6173,
      "Ġhar": 6174,
      "åıĺæĪĲ": 6175,
      "chron": 6176,
      "æĬĬä¸Ģä¸ª": 6177,
      "æĢ§çļĦ": 6178,
      "olism": 6179,
      "ither": 6180,
      "ender": 6181,
      "åŃ¦åĪ°çļĦ": 6182,
      "Ġnext": 6183,
      "çĶµéĺ»": 6184,
      "åŃĲéĽĨ": 6185,
      "Ġunre": 6186,
      "Ġunion": 6187,
      "ckpoint": 6188,
      "Ġcop": 6189,
      "åįķä½ĵ": 6190,
      "Ġdependency": 6191,
      "çĤ¹çļĦ": 6192,
      "é«ĺæ¸©": 6193,
      "Ġheating": 6194,
      "ç»ĦåĪĨ": 6195,
      "åıįåĲĳ": 6196,
      "ä¹Łæĺ¯": 6197,
      "æłĩè®°": 6198,
      "å°ıæī¹éĩı": 6199,
      "Ġmatching": 6200,
      "Ġshr": 6201,
      "load": 6202,
      "è®Ńç»ĥæįŁå¤±": 6203,
      "Ġprefer": 6204,
      "parent": 6205,
      "Ġproduction": 6206,
      "Ġrequiring": 6207,
      "æĻ¯è§Ĥ": 6208,
      "æĹłåħ³": 6209,
      "é¢ĦåħĪ": 6210,
      "ä¸¤ç§į": 6211,
      "Ġarise": 6212,
      "å¤±æķĪ": 6213,
      "Ġclosed": 6214,
      "Ġabstract": 6215,
      "Ġstatic": 6216,
      "ç»Łè®¡ä¿¡æģ¯": 6217,
      "Ġgeneration": 6218,
      "Ġoptimal": 6219,
      "Ġtimeout": 6220,
      "åĲĳéĩıçļĦ": 6221,
      "ĠASC": 6222,
      "Ġphot": 6223,
      "Ġspecies": 6224,
      "å¸¦å®½": 6225,
      "è¿ģç§»åŃ¦ä¹ł": 6226,
      "éĢĴå½Ĵ": 6227,
      "éģĹä¼łæ¼Ĥåıĺ": 6228,
      "Ġgreater": 6229,
      "è¿Ĳè¡ĮæĹ¶": 6230,
      "Ġeventually": 6231,
      "åľ°çĲĥèĩªè½¬": 6232,
      "éĩıåŃĲæĢģ": 6233,
      "Ġedges": 6234,
      "Ġmaterials": 6235,
      "Ġcrit": 6236,
      "Ġatoms": 6237,
      "èĩ³å°ĳ": 6238,
      "éĢıæĺİ": 6239,
      "æĥ¯æĢ§": 6240,
      "çĶµç£ģæ³¢": 6241,
      "Ġreproduc": 6242,
      "Ġdiscrete": 6243,
      "Ġavailability": 6244,
      "Ġrestrict": 6245,
      "æĮ¯åĬ¨": 6246,
      "ç´¯ç§¯": 6247,
      "åħ»åĪĨ": 6248,
      "Ġreturn": 6249,
      "æ°¸ä¹ħ": 6250,
      "Ġspecialized": 6251,
      "Ġinstrument": 6252,
      "Ġdissol": 6253,
      "Ġprocedures": 6254,
      "åįłçĶ¨": 6255,
      "Ġmodern": 6256,
      "Ġcareful": 6257,
      "Ġhistory": 6258,
      "Ġresearchers": 6259,
      "Ġsoftware": 6260,
      "Ġsummar": 6261,
      "Ġunchanged": 6262,
      "æĳĬè¿ĺ": 6263,
      "Ġgreatly": 6264,
      "çĨĶèŀį": 6265,
      "Ġsurvivors": 6266,
      "èļĢ": 6267,
      "ä¸ĢèĪ¬": 6268,
      "bl": 6269,
      "based": 6270,
      "cos": 6271,
      "la": 6272,
      "su": 6273,
      "ton": 6274,
      "tle": 6275,
      "vent": 6276,
      "ying": 6277,
      "æ¹": 6278,
      "æ½": 6279,
      "çŀ": 6280,
      "Ļçī¹": 6281,
      "Ġtiny": 6282,
      "ators": 6283,
      "Ġcate": 6284,
      "isf": 6285,
      "Ġdri": 6286,
      "ital": 6287,
      "Ġpack": 6288,
      "Ġblock": 6289,
      "learning": 6290,
      "åħ«": 6291,
      "Ġrecept": 6292,
      "ä½³": 6293,
      "Ġfund": 6294,
      "Ġinequ": 6295,
      "Ġnar": 6296,
      "éĢĢ": 6297,
      "éĢĶ": 6298,
      "åŃ£": 6299,
      "ulus": 6300,
      "è¿Ļæĺ¯": 6301,
      "Ġhier": 6302,
      "ĠATP": 6303,
      "åı¯ä»¥ä»İ": 6304,
      "å¸¸ä½¿çĶ¨": 6305,
      "é¢Ĺ": 6306,
      "æĽ´ä½İ": 6307,
      "çĽ¸åĬł": 6308,
      "çĽ¸éĤ»": 6309,
      "ormous": 6310,
      "osion": 6311,
      "çĶŁéķ¿": 6312,
      "å¯¹ç§°": 6313,
      "pts": 6314,
      "pted": 6315,
      "Ġrule": 6316,
      "ending": 6317,
      "ä¾§": 6318,
      "Ġvary": 6319,
      "çĶµå®¹": 6320,
      "æ¨¡åŀĭåģĩè®¾": 6321,
      "åı¯èĥ½éľĢè¦ģ": 6322,
      "heric": 6323,
      "è½¦": 6324,
      "è°·": 6325,
      "Ġcoefficient": 6326,
      "ĠSun": 6327,
      "Ġdiffers": 6328,
      "ense": 6329,
      "ç³»ç»Łä¸Ń": 6330,
      "çŃīä½į": 6331,
      "çŃīçİ°è±¡": 6332,
      "irm": 6333,
      "ä¹Łåı¯ä»¥": 6334,
      "ä¹Łä¸įèĥ½": 6335,
      "Ġenormous": 6336,
      "æłĩéĩı": 6337,
      "Ġimbal": 6338,
      "æķ´æķ°": 6339,
      "Ġload": 6340,
      "ä¸»åĬ¨": 6341,
      "ounds": 6342,
      "uctu": 6343,
      "proble": 6344,
      "ĠCh": 6345,
      "è§Ħå®ļ": 6346,
      "ä¸įèĥ½èĦ±": 6347,
      "åĨįæ¬¡": 6348,
      "allen": 6349,
      "æ¬¡æķ°": 6350,
      "Ġgenetic": 6351,
      "åıįåºĶåĴĮ": 6352,
      "åıĤæķ°æĽ´æĸ°": 6353,
      "åıĳçĶŁçļĦ": 6354,
      "Ġtrains": 6355,
      "æ´Ľ": 6356,
      "éĿ¢å¯¹": 6357,
      "Ġmiscon": 6358,
      "Ġsubproble": 6359,
      "Ġconfli": 6360,
      "Ġconfirm": 6361,
      "Ġlocally": 6362,
      "ĠMon": 6363,
      "çº§åĪ«": 6364,
      "Ġrepresented": 6365,
      "Ġcheckpoint": 6366,
      "urrents": 6367,
      "åħ±åĲĮä½ľçĶ¨": 6368,
      "Ġsensitivity": 6369,
      "ffici": 6370,
      "åŃĹç¬¦": 6371,
      "å®Įåħ¨ä¸įåĲĮçļĦ": 6372,
      "åĤ¨èĥ½": 6373,
      "Ġminibatch": 6374,
      "Ġremaining": 6375,
      "Ġenter": 6376,
      "Ġrelationship": 6377,
      "åģľæŃ¢": 6378,
      "ifier": 6379,
      "Ġaffects": 6380,
      "åŃ¦ä¹łçİĩè°ĥåº¦": 6381,
      "Ġcorrectness": 6382,
      "like": 6383,
      "èĪª": 6384,
      "Ġproperty": 6385,
      "Ġcoordinates": 6386,
      "acid": 6387,
      "Ġprevents": 6388,
      "checkpoint": 6389,
      "Ġdatabases": 6390,
      "Ġconsume": 6391,
      "éĴĪ": 6392,
      "Ġschedule": 6393,
      "ä¸įä»ħæĺ¯": 6394,
      "Ġpassword": 6395,
      "æĮ¯èį¡": 6396,
      "èĴĻçī¹": 6397,
      "Ġblack": 6398,
      "Ġfluctu": 6399,
      "Ġfeedback": 6400,
      "Ġconstructs": 6401,
      "Ġdestro": 6402,
      "Ġclosely": 6403,
      "Ġyet": 6404,
      "Ġembeddings": 6405,
      "Ġqueue": 6406,
      "Why": 6407,
      "åī¯æľ¬": 6408,
      "Ġflexible": 6409,
      "Ġformula": 6410,
      "åį¡æ´Ľ": 6411,
      "ĠEXISTS": 6412,
      "ä¸ĵéĹ¨": 6413,
      "å¤§æķ°å®ļå¾ĭ": 6414,
      "ĠBayesian": 6415,
      "èĻ½çĦ¶": 6416,
      "Ġhorizontal": 6417,
      "çŀ¬": 6418,
      "Ġcategor": 6419,
      "Ġfundam": 6420,
      "Ġhierarch": 6421,
      "çŃīä½įåŁºåĽł": 6422,
      "Ġimbalance": 6423,
      "ä¸įèĥ½èĦ±ç¦»": 6424,
      "Ġmisconception": 6425,
      "Ġsubproblems": 6426,
      "Ġconflict": 6427,
      "èĴĻçī¹åį¡æ´Ľ": 6428,
      "Bloom": 6429,
      "data": 6430,
      "floor": 6431,
      "long": 6432,
      "ob": 6433,
      "pir": 6434,
      "sh": 6435,
      "uplic": 6436,
      "ype": 6437,
      "´©": 6438,
      "å´©": 6439,
      "é¾Ħ": 6440,
      "ĠK": 6441,
      "Ġens": 6442,
      "reading": 6443,
      "atform": 6444,
      "Ġcurrents": 6445,
      "Ġsizes": 6446,
      "åıĮ": 6447,
      "çļĦçī©ä½ĵ": 6448,
      "çļĦçĶ¨æĪ·": 6449,
      "Ġpolar": 6450,
      "Ġband": 6451,
      "åºĬ": 6452,
      "äº®": 6453,
      "åı¯è¡Į": 6454,
      "åı¯è¾¾": 6455,
      "Ġtol": 6456,
      "head": 6457,
      "Ġlink": 6458,
      "åĪĨæ³": 6459,
      "etwork": 6460,
      "Ġoff": 6461,
      "chn": 6462,
      "å¸¸éľĢè¦ģ": 6463,
      "æĽ´åħ³æ³¨": 6464,
      "olds": 6465,
      "Ġcharg": 6466,
      "Ġchallen": 6467,
      "Ġrat": 6468,
      "ä½¿æ¨¡åŀĭ": 6469,
      "ä¹ĭä¸Ĭ": 6470,
      "çŁ¿": 6471,
      "åıªè¦ģ": 6472,
      "åİŁæľ¬": 6473,
      "è¾ĥå°ĳ": 6474,
      "Ġmatch": 6475,
      "éĢļå¸¸æĽ´": 6476,
      "è®Ńç»ĥæĹ¶": 6477,
      "æ²»": 6478,
      "Ġdifferently": 6479,
      "Ġtransmit": 6480,
      "çº¿åľĪ": 6481,
      "ĠCar": 6482,
      "åľ°éľĩ": 6483,
      "èĢħåģıå·®": 6484,
      "ç»ıéªĮ": 6485,
      "ç»ĨèıĮ": 6486,
      "äº§çī©": 6487,
      "å¥ĳ": 6488,
      "çĬ¶æĢģçļĦ": 6489,
      "çĬ¶æĢģåĴĮ": 6490,
      "ä¹ĭéĹ´åŃĺåľ¨": 6491,
      "Ġdescent": 6492,
      "éļıæľºæ³¢åĬ¨": 6493,
      "Ġplans": 6494,
      "Ġplatform": 6495,
      "è¯ŃæĸĻ": 6496,
      "è¿ĩç¨ĭåĴĮ": 6497,
      "å§ĭç»Ī": 6498,
      "ç©ºéĹ´ä¸ŃçļĦ": 6499,
      "ç½®ä¿¡": 6500,
      "ä½ķæĹ¶": 6501,
      "è¿ĺè¦ģèĢĥèĻĳ": 6502,
      "versity": 6503,
      "onsistent": 6504,
      "åħīåĲĪ": 6505,
      "éĿŀåĩ¸": 6506,
      "Ġdistinct": 6507,
      "ç®ĢåĮĸ": 6508,
      "æ°´æ±½": 6509,
      "å¾Īå¿«": 6510,
      "æ¡¶": 6511,
      "ĠMIN": 6512,
      "å¤§éĩıéĩįå¤į": 6513,
      "Ġhighest": 6514,
      "Ġfeas": 6515,
      "åħ±åĲĮåĨ³å®ļ": 6516,
      "Ġtraversal": 6517,
      "çŁ©éĺµåĪĨè§£": 6518,
      "Ġlevels": 6519,
      "ĠRep": 6520,
      "Ġsensitive": 6521,
      "Ġapproximations": 6522,
      "çĶŁæĪĲåĩ½æķ°": 6523,
      "Ġdiversity": 6524,
      "æİĴéĻ¤": 6525,
      "Ġidentity": 6526,
      "åĪĴåĪĨ": 6527,
      "æļĹ": 6528,
      "Ġentries": 6529,
      "æŀ¶æŀĦ": 6530,
      "Ġconvert": 6531,
      "Ġexplain": 6532,
      "æ¡Īä¾ĭ": 6533,
      "Ġ100": 6534,
      "å®ĩå®ĻèĨ¨èĥĢ": 6535,
      "æ¼ĶæĽ¿": 6536,
      "Ġgeometric": 6537,
      "Ġprotoc": 6538,
      "ç¼ºå¤±": 6539,
      "Ġincludes": 6540,
      "Ġscheduling": 6541,
      "Ġtypes": 6542,
      "Ġpublic": 6543,
      "æĹ©æľŁ": 6544,
      "æĹ©åģľ": 6545,
      "ission": 6546,
      "Ġalternative": 6547,
      "Ġbrea": 6548,
      "Ġmaintains": 6549,
      "ä¸´åºĬ": 6550,
      "è´Łè½½åĿĩè¡¡": 6551,
      "Ġparallelism": 6552,
      "Ġcolumn": 6553,
      "Ġmetabolic": 6554,
      "Ġgalaxies": 6555,
      "ä¸ĸçķĮ": 6556,
      "Ġsquare": 6557,
      "Ġbegins": 6558,
      "Ġsatisf": 6559,
      "ä¿ĥè¿Ľ": 6560,
      "Ġtechn": 6561,
      "ç¿»è¯ĳ": 6562,
      "æ¶Īè´¹èĢħ": 6563,
      "Ġidempotency": 6564,
      "Ġleakage": 6565,
      "Ġneighboring": 6566,
      "æľªè§ģæķ°æį®": 6567,
      "ä¸Ńå¿ĥæŀģéĻĲå®ļçĲĨ": 6568,
      "ä»ªåĻ¨": 6569,
      "Ġbarrier": 6570,
      "Ġexploit": 6571,
      "variance": 6572,
      "Ġnarrow": 6573,
      "fficiency": 6574,
      "åĪĨæ³Į": 6575,
      "ND": 6576,
      "PR": 6577,
      "Taylor": 6578,
      "VD": 6579,
      "gments": 6580,
      "iary": 6581,
      "ope": 6582,
      "tention": 6583,
      "uine": 6584,
      "yme": 6585,
      "ķè§ģ": 6586,
      "Ńå¤´": 6587,
      "Ġtype": 6588,
      "inical": 6589,
      "Ġsun": 6590,
      "Ġside": 6591,
      "enari": 6592,
      "çļĦéĢŁåº¦": 6593,
      "Ġblo": 6594,
      "Ġflo": 6595,
      "Ġinfer": 6596,
      "Ġeight": 6597,
      "Ġecon": 6598,
      "äº¡": 6599,
      "äº¿": 6600,
      "åı¯è¯ģæĺİ": 6601,
      "åĴĮå®ŀéªĮ": 6602,
      "åĴĮæķ°åĢ¼": 6603,
      "åĴĮèµĦæºĲ": 6604,
      "æķ°ç»Ħ": 6605,
      "Ġlens": 6606,
      "æĸ¥": 6607,
      "åĪĨåĴĮ": 6608,
      "åĪĨç¦»": 6609,
      "ray": 6610,
      "æĬĢ": 6611,
      "style": 6612,
      "ĠAd": 6613,
      "æĽ´ç»Ĩ": 6614,
      "æĽ´éĢĤåĲĪ": 6615,
      "çĽ¸åıĺ": 6616,
      "urate": 6617,
      "Ġmac": 6618,
      "éĩįåĬĽ": 6619,
      "æľĢä½İ": 6620,
      "emble": 6621,
      "åŃ¦çłĶç©¶": 6622,
      "å¤§è§Ħæ¨¡": 6623,
      "ç®Ńå¤´": 6624,
      "æ¨¡åŀĭåľ¨": 6625,
      "ä¸įåĲĮéĺ¶æ®µ": 6626,
      "åı¯èĥ½å½¢æĪĲ": 6627,
      "åıĳå¸ĥ": 6628,
      "åıĳèĤ²": 6629,
      "Ġdeformation": 6630,
      "ç»ĵæŀľæĺ¯åĲ¦": 6631,
      "éĥ½åı¯ä»¥éĢļè¿ĩ": 6632,
      "ç½ķè§ģ": 6633,
      "åıĺåĮĸæĹ¶": 6634,
      "é«ĺéĢŁ": 6635,
      "æŁ¥çľĭ": 6636,
      "Ġheight": 6637,
      "Ġheap": 6638,
      "ä½ľçĶ¨äºİ": 6639,
      "çŃīä¸įåĲĮ": 6640,
      "ortized": 6641,
      "Ġdisturb": 6642,
      "åıįå°Ħ": 6643,
      "åĪĨæŀĲéĥ½": 6644,
      "åĽłæŃ¤ä¸įåĲĮ": 6645,
      "åĪĻåľ¨": 6646,
      "è®Ńç»ĥæł·æľ¬": 6647,
      "Ġscenari": 6648,
      "Ġrouting": 6649,
      "Ġvalle": 6650,
      "Ġgenuine": 6651,
      "å¥ĩ": 6652,
      "å¤ĦçĲĨèĥ½åĬĽ": 6653,
      "éħµ": 6654,
      "åıįåºĶéĢŁçİĩ": 6655,
      "éļıæľºè¯¯å·®": 6656,
      "åģĩè®¾æ£ĢéªĮ": 6657,
      "ç§¯ç´¯": 6658,
      "å·¥ä¸ļ": 6659,
      "å¤±æ´»": 6660,
      "åīįæıĲ": 6661,
      "åĽ¾éģįåİĨ": 6662,
      "éĶĻè¯¯çļĦ": 6663,
      "åĩºçİ°åľ¨": 6664,
      "Ġthroughput": 6665,
      "Ġcellular": 6666,
      "å¾Īå¥½": 6667,
      "ä»·æł¼": 6668,
      "æĹ¶è¿ĺè¦ģæ³¨æĦı": 6669,
      "æľ¬èº«çļĦ": 6670,
      "ä¼ĺåĮĸéĹ®é¢ĺ": 6671,
      "æģĴå®ļ": 6672,
      "Ġproviding": 6673,
      "constrained": 6674,
      "âĢĿãĢĤ": 6675,
      "æĺ¾èĳĹæĢ§": 6676,
      "Ġpositives": 6677,
      "æķ°åĢ¼ç§¯åĪĨ": 6678,
      "Ġchooses": 6679,
      "æ¢¯åº¦ä¸ĭéĻį": 6680,
      "å¤©çĦ¶": 6681,
      "æİĴåĪĹ": 6682,
      "æ¶Īå¤±": 6683,
      "èī²è°±": 6684,
      "Ġmasses": 6685,
      "Ġdefin": 6686,
      "éķ¿æľŁå¹³åĿĩ": 6687,
      "Ġexperiment": 6688,
      "Ġprograms": 6689,
      "çĽ¸å¯¹è®º": 6690,
      "Ġorganizes": 6691,
      "æįŁå¤±åĩ½æķ°": 6692,
      "ompatible": 6693,
      "off": 6694,
      "å»ºç«ĭåľ¨": 6695,
      "Ġflows": 6696,
      "å¹´é¾Ħ": 6697,
      "osphere": 6698,
      "Ġfold": 6699,
      "Ġcontinuously": 6700,
      "ç¼ºéĻ·": 6701,
      "armup": 6702,
      "Ġreveals": 6703,
      "æľīæľºçī©": 6704,
      "å¤ĸéĥ¨æķĪåº¦": 6705,
      "Ġschedules": 6706,
      "Ġtypically": 6707,
      "Ġexactly": 6708,
      "Ġintroduces": 6709,
      "Ġevaluation": 6710,
      "è¾¾åĪ°å¹³è¡¡": 6711,
      "recall": 6712,
      "Ġgoal": 6713,
      "Ġtemporarily": 6714,
      "Ġeasier": 6715,
      "æ°¸è¿ľ": 6716,
      "Ġsalt": 6717,
      "Ġperiodic": 6718,
      "Ġcolumns": 6719,
      "Ġheavily": 6720,
      "Ġkinetics": 6721,
      "Ġprotects": 6722,
      "Ġbroad": 6723,
      "Ġimmune": 6724,
      "structure": 6725,
      "Ġdeviations": 6726,
      "Ġneurons": 6727,
      "çĩĥçĥ§": 6728,
      "vised": 6729,
      "Ġhardware": 6730,
      "Ġtimeouts": 6731,
      "ĠMonte": 6732,
      "ĠCarlo": 6733,
      "Ġfeasible": 6734,
      "Ġeconom": 6735,
      "Ġscenario": 6736,
      "60": 6737,
      "En": 6738,
      "cient": 6739,
      "elect": 6740,
      "iol": 6741,
      "ner": 6742,
      "ov": 6743,
      "pH": 6744,
      "pos": 6745,
      "tual": 6746,
      "wn": 6747,
      "¸ª": 6748,
      "è¸ª": 6749,
      "Ġill": 6750,
      "Ĥè´": 6751,
      "ĥåľ": 6752,
      "åĪļ": 6753,
      "any": 6754,
      "è¿¹": 6755,
      "orre": 6756,
      "Ġduplic": 6757,
      "itro": 6758,
      "çļĦæĸ¹å¼ı": 6759,
      "çļĦçĽ®æłĩ": 6760,
      "çļĦåĪĨåŃĲ": 6761,
      "çļĦä¸Ģéĥ¨åĪĨ": 6762,
      "Ġbodies": 6763,
      "æĺĤè´": 6764,
      "Ġwill": 6765,
      "uses": 6766,
      "Ġinverse": 6767,
      "ä¸įå¿ħ": 6768,
      "ä¸įçŃīå¼ı": 6769,
      "ently": 6770,
      "åĴĮåĨħåŃĺ": 6771,
      "Ġbelong": 6772,
      "Ġconduct": 6773,
      "imal": 6774,
      "Ġlack": 6775,
      "idth": 6776,
      "å¼ĥ": 6777,
      "éĻĨ": 6778,
      "ç»ĵæĿŁ": 6779,
      "å®ŀä¾ĭ": 6780,
      "åĨ»": 6781,
      "ĠAND": 6782,
      "elting": 6783,
      "ä¼ļéĻįä½İ": 6784,
      "Ġgiven": 6785,
      "è¿ĩå°ı": 6786,
      "çĽ¸åıį": 6787,
      "olute": 6788,
      "åŀĥåľ": 6789,
      "éľĢè¦ģåľ¨": 6790,
      "pty": 6791,
      "Ġnearly": 6792,
      "Ġvir": 6793,
      "è¿ĺåıĹåĪ°": 6794,
      "çĶµèĥ½": 6795,
      "æ¯Ĵ": 6796,
      "æ¨¡åŀĭåĴĮ": 6797,
      "å¹¶ä¸įä¼ļ": 6798,
      "åı¯èĥ½æĶ¹åıĺ": 6799,
      "ç©·": 6800,
      "Ġseve": 6801,
      "Ġdelet": 6802,
      "Ġdoub": 6803,
      "åĲĳéĢŁåº¦": 6804,
      "Ġresolution": 6805,
      "é¡¿": 6806,
      "Ġmodeling": 6807,
      "åĬłéĢŁ": 6808,
      "èĥ¶": 6809,
      "Ġcomparing": 6810,
      "è®Ńç»ĥéĽĨ": 6811,
      "å®¹éĶĻ": 6812,
      "åĨħæł¸": 6813,
      "Ġschem": 6814,
      "Ġtransition": 6815,
      "Ġtransactions": 6816,
      "udget": 6817,
      "çº¿ç¨ĭ": 6818,
      "Ġmechanics": 6819,
      "ĠCom": 6820,
      "çľŁç©º": 6821,
      "æĹłç©·": 6822,
      "èµ·çĤ¹": 6823,
      "ä¸įèĥ½ç®Ģåįķ": 6824,
      "åĨįçĶ¨": 6825,
      "æ±Ĥæł¹": 6826,
      "éĢĤçĶ¨äºİ": 6827,
      "çłĶç©¶è®¾è®¡": 6828,
      "ressive": 6829,
      "åıĤæķ°ä¼°è®¡": 6830,
      "Ġarray": 6831,
      "éĢīæĭ©åģıå·®": 6832,
      "Ġclinical": 6833,
      "Ġincom": 6834,
      "åĩ½æķ°æĪĸ": 6835,
      "Ġempir": 6836,
      "Ġempty": 6837,
      "è¯ķåĽ¾": 6838,
      "æİ¨åĬ¨": 6839,
      "æİ¨å¹¿": 6840,
      "è¡¡éĩı": 6841,
      "ĠPlate": 6842,
      "åıĹåĪ°çļĦ": 6843,
      "åĬ¿èĥ½": 6844,
      "Ġcolors": 6845,
      "ĠDNS": 6846,
      "ĠDifferent": 6847,
      "Ġdisap": 6848,
      "çĿĢèī²": 6849,
      "åĪĨåŃĲè½¨éģĵ": 6850,
      "åĪĨåŃĲåĩłä½ķ": 6851,
      "Ġsolar": 6852,
      "çº¿æĢ§ç»ĦåĲĪ": 6853,
      "convex": 6854,
      "ryption": 6855,
      "ç¢±": 6856,
      "Ġcontinually": 6857,
      "è¿ŀæİ¥åĴĮ": 6858,
      "å·®å¼Ĥå¾Īå¤§": 6859,
      "Ġstatistic": 6860,
      "Ġestimated": 6861,
      "Ġspanning": 6862,
      "Ġstop": 6863,
      "Ġpotentials": 6864,
      "Ġcorrel": 6865,
      "Ġprin": 6866,
      "Ġtreated": 6867,
      "è½¨è¿¹": 6868,
      "è§Ĩè§ī": 6869,
      "åİŁåŃĲæĢ§": 6870,
      "Ġjud": 6871,
      "Ġretries": 6872,
      "Ġzones": 6873,
      "stron": 6874,
      "åı¥åŃĲ": 6875,
      "è¯įè¡¨": 6876,
      "éĺ³æĢ§": 6877,
      "Ġbuck": 6878,
      "èĤ¥": 6879,
      "Ġslowly": 6880,
      "æĬĺå°Ħ": 6881,
      "è½¬åĬ¨åĬ¨åĬĽåŃ¦": 6882,
      "Ġrecover": 6883,
      "Ġangle": 6884,
      "Ġsignaling": 6885,
      "Ġfiltering": 6886,
      "Ġreads": 6887,
      "Ġlabel": 6888,
      "Ġbatches": 6889,
      "çĶµç£ģæĦŁåºĶ": 6890,
      "Ġprimarily": 6891,
      "Ġbalanced": 6892,
      "Ġanswers": 6893,
      "æļĤåģľ": 6894,
      "Ġhandles": 6895,
      "Ġcalculate": 6896,
      "Ġmaintenance": 6897,
      "Ġreported": 6898,
      "Ġendpoint": 6899,
      "åºķçī©": 6900,
      "Ġconserved": 6901,
      "Ġintegrity": 6902,
      "ceeds": 6903,
      "Ġdecrease": 6904,
      "Ġhydrogen": 6905,
      "ä¼ļæĺ¾èĳĹå½±åĵį": 6906,
      "Ġtrigger": 6907,
      "Ġwarmup": 6908,
      "æķĻå¸Ī": 6909,
      "Ġkinetic": 6910,
      "Ġpersistent": 6911,
      "Ġinduction": 6912,
      "Ġwhole": 6913,
      "Ġforever": 6914,
      "Ġcooling": 6915,
      "åĲ¯åĬ¨": 6916,
      "åĲİéªĮæ¦Ĥçİĩ": 6917,
      "weighted": 6918,
      "Ġseafloor": 6919,
      "osynthesis": 6920,
      "Ġenzyme": 6921,
      "Ġmobile": 6922,
      "Ġearlier": 6923,
      "Ġharder": 6924,
      "Ġchallenge": 6925,
      "itrogen": 6926,
      "æĺĤè´µ": 6927,
      "åŀĥåľ¾": 6928,
      "Ġempirical": 6929,
      "Ġdisappe": 6930,
      "01": 6931,
      "AX": 6932,
      "ALE": 6933,
      "acc": 6934,
      "batch": 6935,
      "go": 6936,
      "gma": 6937,
      "oil": 6938,
      "sub": 6939,
      "tically": 6940,
      "width": 6941,
      "²Į": 6942,
      "çĮ": 6943,
      "è²Į": 6944,
      "Ľé¡¿": 6945,
      "Ġsl": 6946,
      "Ġslo": 6947,
      "enced": 6948,
      "ited": 6949,
      "ä»ĺ": 6950,
      "çļĦæł·æľ¬": 6951,
      "çļĦåĪĨå¸ĥ": 6952,
      "çļĦçİ°è±¡": 6953,
      "ĠpH": 6954,
      "Ġpe": 6955,
      "å®ĺ": 6956,
      "Ġbonding": 6957,
      "Ġbudget": 6958,
      "ush": 6959,
      "ä¸Ģæ®µ": 6960,
      "åı¯åŃ¦ä¹ł": 6961,
      "Ġnodes": 6962,
      "Ġnitrogen": 6963,
      "åĴĮä½İ": 6964,
      "åĴĮä¿¡åı·": 6965,
      "æĺ¯åĽłä¸º": 6966,
      "lys": 6967,
      "èĥ½æĺ¾èĳĹ": 6968,
      "æķ°çĻ¾": 6969,
      "ä¼¸": 6970,
      "Ġcongest": 6971,
      "Ġlist": 6972,
      "Ġlate": 6973,
      "å¼¯": 6974,
      "æĬµ": 6975,
      "åĩ»": 6976,
      "åº¦æııè¿°": 6977,
      "æľīäºĽ": 6978,
      "Ġhad": 6979,
      "Ġhund": 6980,
      "ĠTransformer": 6981,
      "å¹¶æĬĬ": 6982,
      "atell": 6983,
      "åı¯ä»¥æĶ¹åıĺ": 6984,
      "æµĨ": 6985,
      "åį·": 6986,
      "çīĽé¡¿": 6987,
      "å·±": 6988,
      "Ġmagma": 6989,
      "ended": 6990,
      "è¡¨è§Ĥ": 6991,
      "å¤§çº¦": 6992,
      "åĲİåı¯ä»¥": 6993,
      "æķ°æį®ä¸Ń": 6994,
      "æĿ¡ä»¶æĹ¶": 6995,
      "æ·Ģ": 6996,
      "è¡Įæķ°": 6997,
      "Ġhead": 6998,
      "ays": 6999,
      "æģ°": 7000,
      "Ġcontract": 7001,
      "æĿ¥è¶Ĭ": 7002,
      "æĻº": 7003,
      "è¯ģä¹¦": 7004,
      "èĩªå·±": 7005,
      "åĬłå¿«": 7006,
      "éļıçĿĢ": 7007,
      "Ġevol": 7008,
      "æ²³": 7009,
      "éĢļè¿ĩéļıæľº": 7010,
      "Ġtransitions": 7011,
      "igned": 7012,
      "Ġadvant": 7013,
      "åľ°è´¨": 7014,
      "åľ°çĤ¹": 7015,
      "åľ°è²Į": 7016,
      "é¢Ħç®Ĺ": 7017,
      "Ġinteraction": 7018,
      "Ġremove": 7019,
      "åĨįæĬĬ": 7020,
      "Ġcaching": 7021,
      "ä¼ĺåĬ¿": 7022,
      "å¼ºçĥĪ": 7023,
      "Ġmanage": 7024,
      "though": 7025,
      "Ġplates": 7026,
      "åģĩè®¾çļĦ": 7027,
      "ustion": 7028,
      "å°±èĥ½": 7029,
      "Ġdecide": 7030,
      "Ġseparation": 7031,
      "Ġseparates": 7032,
      "Ġworkload": 7033,
      "è¶ĬæĿ¥è¶Ĭ": 7034,
      "æĺ¾å¼ı": 7035,
      "INCT": 7036,
      "Ġkeeping": 7037,
      "èĮĥå¼ı": 7038,
      "Ġgenerations": 7039,
      "è¾ĵåħ¥åĪĨå¸ĥ": 7040,
      "æĶ¶çĽĬ": 7041,
      "åħīåŃ¦": 7042,
      "ĠEn": 7043,
      "å¯ĨåĪĩ": 7044,
      "Ġsolute": 7045,
      "æľĢç»Īä¸Ģèĩ´æĢ§": 7046,
      "ĠRNA": 7047,
      "Ġlowers": 7048,
      "Ġdetermined": 7049,
      "Ġsequential": 7050,
      "è¿½è¸ª": 7051,
      "çī¹å¾ģåĢ¼": 7052,
      "æľªæĿ¥": 7053,
      "Ġcomputational": 7054,
      "Ġcorrelated": 7055,
      "æķĪåºĶå¤§å°ı": 7056,
      "åİŁåŃĲæĵįä½ľ": 7057,
      "Ġparticle": 7058,
      "åĵªäºĽåıĺéĩı": 7059,
      "Ġorganization": 7060,
      "Ġguarantees": 7061,
      "Ġbuf": 7062,
      "gener": 7063,
      "ç²ĴåŃĲçļĦ": 7064,
      "ä¹ĺç§¯": 7065,
      "è¡°åıĺ": 7066,
      "Ġabsolute": 7067,
      "Ġfilters": 7068,
      "Ġvisual": 7069,
      "æ¿Ģç´ł": 7070,
      "æ²īæ·Ģ": 7071,
      "Ġsingular": 7072,
      "è´Łè´£æĬĬ": 7073,
      "æµ·æ´ĭçİ¯æµģ": 7074,
      "Ġcombination": 7075,
      "éĿĻçĶµ": 7076,
      "éĿĻæĢģ": 7077,
      "éĴ¥": 7078,
      "éĴŁ": 7079,
      "Ġreachable": 7080,
      "èģĶç³»èµ·æĿ¥": 7081,
      "æł·æľ¬éĩıå¢ŀåĬł": 7082,
      "SCE": 7083,
      "çīĩæ®µ": 7084,
      "Ġlikely": 7085,
      "Ġsuccessful": 7086,
      "Ġtimescal": 7087,
      "æĸĩä»¶ç³»ç»Ł": 7088,
      "Ġnuclei": 7089,
      "Ġmathematically": 7090,
      "æµģéĩıæİ§åĪ¶": 7091,
      "Ġcataly": 7092,
      "recision": 7093,
      "å°ĳæķ°ç±»": 7094,
      "Ġelementary": 7095,
      "æİ¥æĶ¶ç«¯": 7096,
      "Ġdecreases": 7097,
      "ISTINCT": 7098,
      "é»ĳä½ĵ": 7099,
      "Ġmetabolism": 7100,
      "Ġconvexity": 7101,
      "Ġlocking": 7102,
      "Ġright": 7103,
      "Ġpolynomials": 7104,
      "forward": 7105,
      "Ġpairs": 7106,
      "Ġresampling": 7107,
      "Ġpolicies": 7108,
      "Ġnoisy": 7109,
      "Ġperman": 7110,
      "çĪĨ": 7111,
      "å°ģéĹŃ": 7112,
      "Ġgradually": 7113,
      "æ´»åĮĸèĥ½": 7114,
      "Ġconcentrations": 7115,
      "å³°": 7116,
      "åľĨè½¨éģĵ": 7117,
      "Ġstationary": 7118,
      "Ġcritical": 7119,
      "æ½ľ": 7120,
      "ALESCE": 7121,
      "Ġcongestion": 7122,
      "è¡¨è§ĤéģĹä¼ł": 7123,
      "Ġadvantage": 7124,
      "Ġtimescales": 7125,
      "Batch": 7126,
      "IP": 7127,
      "cre": 7128,
      "gers": 7129,
      "olec": 7130,
      "ocean": 7131,
      "rine": 7132,
      "vol": 7133,
      "İå¸Ĥ": 7134,
      "Ńç¤º": 7135,
      "ont": 7136,
      "inity": 7137,
      "Ġclo": 7138,
      "Ġcall": 7139,
      "Ġsatell": 7140,
      "çļĦåĢ¼": 7141,
      "çļĦè¿ĩç¨ĭ": 7142,
      "çļĦå¹³åĿĩ": 7143,
      "çļĦæķ°åĢ¼": 7144,
      "Ġbot": 7145,
      "Ġbatter": 7146,
      "Ġrev": 7147,
      "Ġreplic": 7148,
      "Ġreverse": 7149,
      "Ġinher": 7150,
      "ä¸įåŃĺåľ¨": 7151,
      "è¯ī": 7152,
      "Ġold": 7153,
      "Ġefficiency": 7154,
      "entory": 7155,
      "åĴĮæĽ´æĸ°": 7156,
      "åŃĶ": 7157,
      "ä¼ª": 7158,
      "Ġconve": 7159,
      "Ġloses": 7160,
      "æĸ½": 7161,
      "åľ¨çī¹å®ļ": 7162,
      "åľ¨ä»»ä½ķ": 7163,
      "åľ¨åħ¨çĲĥ": 7164,
      "raction": 7165,
      "åĩĢ": 7166,
      "æĪĲåĥı": 7167,
      "ä¸ºçľŁ": 7168,
      "Ġones": 7169,
      "Ġhol": 7170,
      "Ġhide": 7171,
      "stat": 7172,
      "å¹¶å½¢æĪĲ": 7173,
      "abolic": 7174,
      "Ġgases": 7175,
      "åįĥ": 7176,
      "éĩįåıł": 7177,
      "æĪĸé£İéĻ©": 7178,
      "æľĢåĲİ": 7179,
      "æľĢä½³": 7180,
      "ement": 7181,
      "ä¾µ": 7182,
      "æķ°æį®éĽĨ": 7183,
      "æķ°æį®çĶŁæĪĲ": 7184,
      "Ġiter": 7185,
      "å¹¶ä¸įçĽ¸åĲĮ": 7186,
      "å¹¶ä¸įè¶³ä»¥": 7187,
      "æıŃç¤º": 7188,
      "Ġunconstrained": 7189,
      "çľĭä¼¼": 7190,
      "åıĳå±ķ": 7191,
      "è°¨": 7192,
      "æ°¢": 7193,
      "æ°®": 7194,
      "æ³ķåĴĮ": 7195,
      "æŃ£è´Ł": 7196,
      "æĮĳ": 7197,
      "åŁİå¸Ĥ": 7198,
      "åĢ¼åĴĮ": 7199,
      "Ġdependent": 7200,
      "é«ĺäºİ": 7201,
      "åĽłä¸ºä¸įåĲĮ": 7202,
      "ç³»ç»Łåľ¨": 7203,
      "ç»Ħä»¶": 7204,
      "å®ĥæĬĬ": 7205,
      "è¯ģä¼ª": 7206,
      "iration": 7207,
      "Ġapply": 7208,
      "Ġapplies": 7209,
      "å¹³åĬ¨": 7210,
      "Ġimages": 7211,
      "è·ĥ": 7212,
      "Ġmatches": 7213,
      "éĽ·": 7214,
      "åħ¥è¯¯å·®": 7215,
      "ä¸ĭæ²ī": 7216,
      "ä½įç§»": 7217,
      "Ġadv": 7218,
      "ç±³": 7219,
      "äºĭåħĪ": 7220,
      "Ġformed": 7221,
      "ä¸įèĥ½çĽ´æİ¥": 7222,
      "ä¸¤ä¾§": 7223,
      "éĢĤå½ĵ": 7224,
      "åĪĨå¸ĥæ¼Ĥç§»": 7225,
      "Ġinconsistent": 7226,
      "Ġreduction": 7227,
      "Ġreduced": 7228,
      "è¶Ĭé«ĺ": 7229,
      "ç»Ĩèĥŀä¿¡åı·": 7230,
      "æİ¨èį": 7231,
      "åħ³ç³»çļĦ": 7232,
      "ç²ĺ": 7233,
      "Ġunderstanding": 7234,
      "Ġdetailed": 7235,
      "è¡¨ç¤ºæĪĲ": 7236,
      "Ġoverla": 7237,
      "Ġrequirements": 7238,
      "æĸ¹åĲĳç§»åĬ¨": 7239,
      "Ġvariations": 7240,
      "æĶ¶éĽĨ": 7241,
      "éĩįå¤įæµĭéĩı": 7242,
      "ä¿®é¥": 7243,
      "Ġrays": 7244,
      "æŀģåħ¶": 7245,
      "Ġerosion": 7246,
      "tices": 7247,
      "äººåĳĺ": 7248,
      "æµĭéĩıè¯¯å·®": 7249,
      "ç®ĢåįķçļĦ": 7250,
      "Ġsolid": 7251,
      "Ġrepeat": 7252,
      "rypt": 7253,
      "ç®Ĺæ³ķåľ¨": 7254,
      "äºĮåĪĨ": 7255,
      "åĮĸåŃ¦èĥ½": 7256,
      "Ġcontrols": 7257,
      "æĺ¾èĳĹå½±åĵį": 7258,
      "æł¡éªĮ": 7259,
      "åĨĻåĩº": 7260,
      "Ġextra": 7261,
      "å£°éŁ³": 7262,
      "åºıåĪĹéķ¿åº¦": 7263,
      "Ġentropy": 7264,
      "Ġintegral": 7265,
      "å²©æµĨ": 7266,
      "Ġinspect": 7267,
      "rank": 7268,
      "Ġinventory": 7269,
      "éļĶç¦»çº§åĪ«": 7270,
      "Ġlogs": 7271,
      "Ġnonconvex": 7272,
      "åįĩé«ĺ": 7273,
      "Ġtokenizer": 7274,
      "Ġfollows": 7275,
      "æķıæĦŁæĢ§åĪĨæŀĲ": 7276,
      "éħ¸ç¢±": 7277,
      "Ġdivide": 7278,
      "åĲĦèĩª": 7279,
      "åı¯éĿłæĢ§": 7280,
      "Ġinstant": 7281,
      "å½Ĵä¸ĢåĮĸåĴĮ": 7282,
      "Ġvertices": 7283,
      "æŃ»äº¡": 7284,
      "ä¸įåıĺçļĦ": 7285,
      "å²©çŁ³å¾ªçİ¯": 7286,
      "åħħçĶµ": 7287,
      "Ġrequests": 7288,
      "Ġmicrob": 7289,
      "åĳĬè¯ī": 7290,
      "å¸¸è§ģè¯¯åĮºæĺ¯è®¤ä¸º": 7291,
      "åľŁå£¤åĴĮ": 7292,
      "Ġdevices": 7293,
      "Ġfraud": 7294,
      "Ġsurvival": 7295,
      "éĥ½åı¯èĥ½æĶ¹åıĺ": 7296,
      "Ġimplement": 7297,
      "Ġcurve": 7298,
      "Ġreactants": 7299,
      "Ġcorrespond": 7300,
      "asticity": 7301,
      "Ġfitting": 7302,
      "Ġcapacitor": 7303,
      "Ġatmospheric": 7304,
      "èĨľçĶµä½į": 7305,
      "Ġfiner": 7306,
      "Ġepochs": 7307,
      "Ġheavy": 7308,
      "Ġlookup": 7309,
      "Ġwindows": 7310,
      "Ġtendency": 7311,
      "Ġinfinitely": 7312,
      "ä¸²èģĶ": 7313,
      "èĪįåħ¥è¯¯å·®": 7314,
      "Ġdiagnosis": 7315,
      "Ġsharp": 7316,
      "tlene": 7317,
      "Ġcandidate": 7318,
      "Ġthreshold": 7319,
      "Ġarchitectures": 7320,
      "Ġtrajectories": 7321,
      "cosystem": 7322,
      "éĴĪå¯¹": 7323,
      "Ġcategories": 7324,
      "Ġbandwidth": 7325,
      "æĬĢæľ¯": 7326,
      "Ġdouble": 7327,
      "Ġcorrelations": 7328,
      "lysis": 7329,
      "æĻºèĥ½": 7330,
      "å¯ĨåĪĩçĽ¸åħ³": 7331,
      "Ġcatalytic": 7332,
      "Ġbottlene": 7333,
      "æİ¨èįĲ": 7334,
      "Ġoverlapping": 7335,
      "ä¿®é¥°": 7336,
      ").": 7337,
      "BFS": 7338,
      "KT": 7339,
      "QR": 7340,
      "SM": 7341,
      "St": 7342,
      "ai": 7343,
      "fol": 7344,
      "link": 7345,
      "mits": 7346,
      "ople": 7347,
      "Ġvers": 7348,
      "ĤçĽ´": 7349,
      "Ġaway": 7350,
      "Ġsides": 7351,
      "itative": 7352,
      "æľ¨": 7353,
      "æľĹ": 7354,
      "å®ľ": 7355,
      "Ġreject": 7356,
      "Ġful": 7357,
      "Ġinward": 7358,
      "ä¸įä¿Ŀè¯ģ": 7359,
      "Ġown": 7360,
      "ä¸Ģç±»": 7361,
      "åı¯å¤ĦçĲĨ": 7362,
      "åı¯æµĭéĩı": 7363,
      "åĴĮä¸»": 7364,
      "æĺ¯æĬĬ": 7365,
      "Ġstack": 7366,
      "Ġstream": 7367,
      "Ġstrict": 7368,
      "Ġlinks": 7369,
      "ided": 7370,
      "idges": 7371,
      "åľ¨çº¿": 7372,
      "ulary": 7373,
      "Ġcome": 7374,
      "è¡Ģ": 7375,
      "å°Ĩ": 7376,
      "å°ĸ": 7377,
      "è§£çļĦ": 7378,
      "Ġonto": 7379,
      "Ġonline": 7380,
      "æľīå¤ļå°ĳ": 7381,
      "Ġhots": 7382,
      "stud": 7383,
      "Ġalthough": 7384,
      "ĠTaylor": 7385,
      "ques": 7386,
      "å¹¶éĢļè¿ĩ": 7387,
      "æĬĬå¤įæĿĤ": 7388,
      "æĬĬæīĢæľī": 7389,
      "åı¯ä»¥åĪ©çĶ¨": 7390,
      "abulary": 7391,
      "ä¼ļçł´åĿı": 7392,
      "è¿ĩå¤ļ": 7393,
      "rial": 7394,
      "ters": 7395,
      "ä½ĵæ¨¡åŀĭ": 7396,
      "éĢļéģĵ": 7397,
      "ä¸İçĽ®æłĩ": 7398,
      "èĢĮä¸įä»ħæĺ¯": 7399,
      "åŀĤçĽ´": 7400,
      "éľĢè¦ģä½¿çĶ¨": 7401,
      "å¯¹äºİ": 7402,
      "emb": 7403,
      "ä¸Ģä¸ªæ¨¡åŀĭ": 7404,
      "æŁĶ": 7405,
      "è¿ĺæĺ¯": 7406,
      "æķ°æį®åľ¨": 7407,
      "æķ°æį®ç»ĵæŀĦ": 7408,
      "å®ŀéĻħç³»ç»Ł": 7409,
      "çĶµè§£": 7410,
      "æ¨¡åŀĭæĺ¯åĲ¦": 7411,
      "æ¨¡åŀĭåŃ¦ä¹ł": 7412,
      "åı¯èĥ½ä¸įåĲĮ": 7413,
      "åı¯èĥ½åŃĺåľ¨": 7414,
      "åĢŁ": 7415,
      "è½»": 7416,
      "ç©¿": 7417,
      "éª¨": 7418,
      "Ġseism": 7419,
      "Ġcodes": 7420,
      "éĥ½åı¯ä»¥çĶ¨": 7421,
      "åıªçĶ±": 7422,
      "åĲĳä¸ĭ": 7423,
      "Ġintended": 7424,
      "åĽłä¸ºå®ĥ": 7425,
      "èĩªçĽĳçĿ£": 7426,
      "éĻĲæµģ": 7427,
      "å¹³åı°": 7428,
      "Ġimag": 7429,
      "å°ıæł·æľ¬": 7430,
      "å¼ĢæĶ¾": 7431,
      "éĢļå¸¸æĺ¯": 7432,
      "Ġpreval": 7433,
      "åĲĮæĹ¶åħ³æ³¨": 7434,
      "ç¼ł": 7435,
      "æºĥ": 7436,
      "Ġtransparent": 7437,
      "pace": 7438,
      "Ġadmit": 7439,
      "åīª": 7440,
      "éĶ®æĺłå°ĦåĪ°": 7441,
      "Ġrelation": 7442,
      "çĶ±äºİ": 7443,
      "Ġheld": 7444,
      "åľ°åĮº": 7445,
      "åľ°éĿ¢": 7446,
      "ä»įéľĢè¦ģ": 7447,
      "é¢ĦæľŁ": 7448,
      "ĠBloom": 7449,
      "ĠOn": 7450,
      "Ġgenes": 7451,
      "æıĲåīį": 7452,
      "ä¹ĭéĹ´åıĸ": 7453,
      "ç¤¾": 7454,
      "Ġplants": 7455,
      "æŁĲç§į": 7456,
      "èĥ½å¤Łå¸®åĬ©": 7457,
      "Ġdecides": 7458,
      "Ġabstra": 7459,
      "Ġindic": 7460,
      "åīįé¦Ī": 7461,
      "æİ¨å¯¼": 7462,
      "å¯¼çĶµ": 7463,
      "æĺ¾ç¤º": 7464,
      "åģıåĲĳ": 7465,
      "Ġobserve": 7466,
      "Ġclearly": 7467,
      "exts": 7468,
      "Ġsubstr": 7469,
      "Ġconfig": 7470,
      "Ġlocate": 7471,
      "Ġcred": 7472,
      "Ġcreating": 7473,
      "Ġoptimize": 7474,
      "Ġrandomized": 7475,
      "ĠMAX": 7476,
      "çľĭåĪ°çļĦ": 7477,
      "éªĮè¯ģæķ°æį®": 7478,
      "ç£ģçĽĺ": 7479,
      "ç¢İ": 7480,
      "Ġmembers": 7481,
      "Ġamortized": 7482,
      "ç»ĦåĲĪæĪĲ": 7483,
      "äºĮç»´": 7484,
      "Ġcombined": 7485,
      "Ġlocality": 7486,
      "äº¤èģĶ": 7487,
      "ç»Ħç»ĩæĪĲ": 7488,
      "ç¼ĵæħ¢": 7489,
      "åĲĮæł·éĩįè¦ģ": 7490,
      "Ġspreading": 7491,
      "æİ¥è¿ĳéĽ¶": 7492,
      "Ġcompared": 7493,
      "æļĸ": 7494,
      "Ġcaused": 7495,
      "Ġlonger": 7496,
      "çĸı": 7497,
      "è¡¨éĿ¢ç§¯": 7498,
      "ocabulary": 7499,
      "Ġrespiration": 7500,
      "Ġcalled": 7501,
      "ä¸Ģèĩ´æĢ§åĵĪå¸Į": 7502,
      "Ġinfluenced": 7503,
      "æħİ": 7504,
      "Ġlogical": 7505,
      "Ġpattern": 7506,
      "Ġtokenization": 7507,
      "Ġbased": 7508,
      "ç±»åŀĭåĴĮ": 7509,
      "é¦ı": 7510,
      "Ġredistrib": 7511,
      "Ġuniversal": 7512,
      "éĩĳèŀį": 7513,
      "Ġfolding": 7514,
      "Ġindexing": 7515,
      "çģµ": 7516,
      "Ġmonomer": 7517,
      "Ġselective": 7518,
      "Ġemphasize": 7519,
      "Ġhypothes": 7520,
      "Ġrunning": 7521,
      "è¶ĭåĲĳ": 7522,
      "ä¹Łä¼ļå¢ŀåĬł": 7523,
      "Ġconstruction": 7524,
      "éļıæĹ¶éĹ´åıĺåĮĸ": 7525,
      "Ġframes": 7526,
      "Ġadaptation": 7527,
      "Ġblinding": 7528,
      "Ġbeneath": 7529,
      "Ġfocuses": 7530,
      "Ġsorted": 7531,
      "Ġincreasingly": 7532,
      "Ġsignificance": 7533,
      "ä¸´çķĮ": 7534,
      "Ġweathering": 7535,
      "æĬķèµĦ": 7536,
      "Ġcapacitors": 7537,
      "Ġsynchron": 7538,
      "Ġelectrode": 7539,
      "é»ĳæ´ŀ": 7540,
      "åĪĽå»º": 7541,
      "apsack": 7542,
      "æ²īç§¯çī©": 7543,
      "çºłæŃ£": 7544,
      "çºłç¼ł": 7545,
      "Ġgalaxy": 7546,
      "æĻ¶ä½ĵ": 7547,
      "Ġrigid": 7548,
      "Ġtrials": 7549,
      "å·¨å¤§çļĦ": 7550,
      "Ġtectonic": 7551,
      "å¹¸åŃĺèĢħåģıå·®": 7552,
      "Ġdiagrams": 7553,
      "Ġliter": 7554,
      "Ġcontribute": 7555,
      "è½¬å½ķåĽłåŃĲ": 7556,
      "Ġrecomm": 7557,
      "ATE": 7558,
      "Ġperfectly": 7559,
      "æŁĵèī²è´¨": 7560,
      "èĢ¦åĲĪ": 7561,
      "èĴ¸é¦ı": 7562,
      "Ġdamage": 7563,
      "Ġmigration": 7564,
      "Ġfreezing": 7565,
      "Ġsymb": 7566,
      "Ġdissolved": 7567,
      "blind": 7568,
      "super": 7569,
      "åŃ£èĬĤ": 7570,
      "Ġdestroy": 7571,
      "å´©æºĥ": 7572,
      "å¥ĳçº¦": 7573,
      "åħīåĲĪä½ľçĶ¨": 7574,
      "ä¸´åºĬè¯ķéªĮ": 7575,
      "Ġsunlight": 7576,
      "positive": 7577,
      "Ġvirtual": 7578,
      "ä¾µèļĢ": 7579,
      "è°¨æħİ": 7580,
      "æİ¨èįĲç³»ç»Ł": 7581,
      "Ġfully": 7582,
      "student": 7583,
      "Ġprevalence": 7584,
      "Ġsubstrate": 7585,
      "ADH": 7586,
      "Earth": 7587,
      "aper": 7588,
      "cument": 7589,
      "fold": 7590,
      "hib": 7591,
      "iques": 7592,
      "over": 7593,
      "rite": 7594,
      "set": 7595,
      "trans": 7596,
      "yond": 7597,
      "°å¯Į": 7598,
      "ºè¯": 7599,
      "¿ä¸»": 7600,
      "Īæ£Ģæµĭ": 7601,
      "ĵåĲį": 7602,
      "Ġastron": 7603,
      "Ġtea": 7604,
      "ener": 7605,
      "ancial": 7606,
      "orph": 7607,
      "Ġden": 7608,
      "çļĦæĢ»": 7609,
      "çļĦä½įç½®": 7610,
      "çļĦè¯ģæį®": 7611,
      "çļĦæģĴæĺŁ": 7612,
      "Ġport": 7613,
      "æľĪ": 7614,
      "å®¿ä¸»": 7615,
      "aring": 7616,
      "Ġbounds": 7617,
      "Ġopp": 7618,
      "åı¯å¾®": 7619,
      "åĽĽ": 7620,
      "éĢĥ": 7621,
      "åĴĮäº§": 7622,
      "åĴĮçĽ®æłĩ": 7623,
      "åĴĮä¼ĺåĮĸåĻ¨": 7624,
      "Ġbeyond": 7625,
      "ceans": 7626,
      "æĸľ": 7627,
      "åĪĨæ²»": 7628,
      "æĹ¶ç©º": 7629,
      "å¿į": 7630,
      "å¼¹": 7631,
      "æĪĲå¯¹": 7632,
      "å°¾": 7633,
      "Ġhost": 7634,
      "stable": 7635,
      "åıĺè´¨": 7636,
      "å¹¶ä¿ĿåŃĺ": 7637,
      "æįķ": 7638,
      "åºĶç»ĵåĲĪ": 7639,
      "æĬĬæĮĩæķ°": 7640,
      "åı¯ä»¥äº§çĶŁ": 7641,
      "åı¯ä»¥åħ·æľī": 7642,
      "æĽ´å°ı": 7643,
      "æĽ´éļ¾": 7644,
      "è¿ĩäºİ": 7645,
      "riction": 7646,
      "éĢļéĢı": 7647,
      "urity": 7648,
      "æľºä¼ļ": 7649,
      "åĪ¶éĢł": 7650,
      "éľĢè¦ģéĩįå¤į": 7651,
      "éľĢè¦ģæĽ´å¤ļ": 7652,
      "Ġrise": 7653,
      "ä¸Ģä¸ªåıĺéĩı": 7654,
      "Ġvocabulary": 7655,
      "å¤ļè¿ľ": 7656,
      "è¡¨å±Ĥ": 7657,
      "åĲİä¼ļ": 7658,
      "åĲİç«¯": 7659,
      "duction": 7660,
      "èĩĤ": 7661,
      "å¹¶ä¸įåıª": 7662,
      "å¹¶ä¸įä¼ļè®©": 7663,
      "ä¹ĭå·®": 7664,
      "åı¯èĥ½åıªæĺ¯": 7665,
      "Ġunt": 7666,
      "Ġunstable": 7667,
      "antic": 7668,
      "æŀĦå»º": 7669,
      "åįķæĿ¡": 7670,
      "Ġdocument": 7671,
      "Ġchance": 7672,
      "åİŁçĲĨ": 7673,
      "Ġresh": 7674,
      "Ġcontexts": 7675,
      "ç³»ç»Łåģıå·®": 7676,
      "ç»Ħä¹ĭéĹ´": 7677,
      "èĩªæ³¨æĦıåĬĽ": 7678,
      "Ġforward": 7679,
      "å½¢åıĺ": 7680,
      "å¹³æ»ĳ": 7681,
      "å¼Ģåıĳ": 7682,
      "åĪĻéľĢè¦ģ": 7683,
      "éĢļå¸¸éĢļè¿ĩ": 7684,
      "åŁºåĩĨ": 7685,
      "Ġcomparisons": 7686,
      "åĲĮæĹ¶èĢĥèĻĳ": 7687,
      "å®¹å¿į": 7688,
      "Ġscan": 7689,
      "ĠFor": 7690,
      "æııè¿°åľ¨": 7691,
      "process": 7692,
      "uding": 7693,
      "äºĭåĲİ": 7694,
      "æ¬ºè¯": 7695,
      "æŃ¥æķ°": 7696,
      "æł·æľ¬æķ°éĩı": 7697,
      "ç±»ä¼¼": 7698,
      "æĹłçº¿": 7699,
      "æĹłéĩıçº²": 7700,
      "ä¸įèĥ½æ··ä¸ºä¸Ģè°Ī": 7701,
      "ä¸įèĥ½ä»£è¡¨": 7702,
      "éĢĤéħį": 7703,
      "çī¹çĤ¹": 7704,
      "å¥¥": 7705,
      "åĪĨå¸ĥåľ¨": 7706,
      "ç¨³å®ļçļĦ": 7707,
      "Ġarrange": 7708,
      "Ġdecl": 7709,
      "Ġincompatible": 7710,
      "éĩįè¦ģçļĦæĺ¯": 7711,
      "å§ĵåĲį": 7712,
      "å¿ħé¡»åľ¨": 7713,
      "åīįéĿ¢": 7714,
      "éĶĻè¯¯çİĩ": 7715,
      "åģıç§»": 7716,
      "Ġobser": 7717,
      "Ġlearns": 7718,
      "ĠNew": 7719,
      "Ġvariants": 7720,
      "Ġpartially": 7721,
      "Ġconstants": 7722,
      "Ġimportance": 7723,
      "ĠPro": 7724,
      "Ġexpand": 7725,
      "Ġlocations": 7726,
      "Ġcomplement": 7727,
      "æ°´çļĦ": 7728,
      "å±ķç¤º": 7729,
      "å¾Īå°ı": 7730,
      "éħįä½ĵ": 7731,
      "ä¼ĺåĮĸæĻ¯è§Ĥ": 7732,
      "æ¸©åº¦åıĺåĮĸ": 7733,
      "Ġsolve": 7734,
      "çº¿æĢ§è¿ĳä¼¼": 7735,
      "çº¿æĢ§æĹłåħ³": 7736,
      "èĮĥåĽ´åĨħ": 7737,
      "æĿĥåĽ¾": 7738,
      "åħ³æ³¨ä¸Ģä¸ª": 7739,
      "conquer": 7740,
      "æĮĩä»¤": 7741,
      "å°ºåº¦åĴĮ": 7742,
      "ä¸¤èĢħè§£åĨ³": 7743,
      "ä¸¤èĢħä¸įæĺ¯åĲĮä¸Ģ": 7744,
      "Ġaccurate": 7745,
      "èĥĮåĮħ": 7746,
      "Ġcontinues": 7747,
      "æµĭè¯ķè¦ĨçĽĸ": 7748,
      "Ġpathway": 7749,
      "è¿ŀæİ¥é¡ºåºı": 7750,
      "çī¹å¾ģåĪĨè§£": 7751,
      "éĺ¶é¡¹": 7752,
      "çĶŁæĪĲæłĳ": 7753,
      "Ġfunctional": 7754,
      "Ġclassical": 7755,
      "è§Ĩä¸º": 7756,
      "Ġexamine": 7757,
      "çªģçĦ¶": 7758,
      "å¹¶ä¸įæĢ»èĥ½": 7759,
      "Ġdefine": 7760,
      "Ġcausing": 7761,
      "Ġplanned": 7762,
      "ç»ĦæĪĲçļĦ": 7763,
      "èģļéĽĨ": 7764,
      "éĿłè¿ĳ": 7765,
      "éģĹä¼łåıĺå¼Ĥ": 7766,
      "Ġdirectional": 7767,
      "å¹¶ä¸įä¸Ģå®ļè¶Ĭå¥½": 7768,
      "Ġknapsack": 7769,
      "apor": 7770,
      "aped": 7771,
      "Ġpredicted": 7772,
      "Ġpredictive": 7773,
      "Ġisolated": 7774,
      "è¯Ħä¼°èĢħ": 7775,
      "ä¿ĿçķĻæĹ¶éĹ´": 7776,
      "äºĭåĬ¡éļĶç¦»": 7777,
      "å¤ªéĺ³èĥ½": 7778,
      "ç»ĿçĥŃ": 7779,
      "Ġproton": 7780,
      "è½¬åĮĸæĪĲ": 7781,
      "Ġfolds": 7782,
      "ä¸ŃéĹ´ä½ĵ": 7783,
      "Ġcryst": 7784,
      "Ġoxid": 7785,
      "Ġcoordination": 7786,
      "æľĢå°ıçĶŁæĪĲæłĳ": 7787,
      "ç¦»åŃĲæµĵåº¦": 7788,
      "Ġverify": 7789,
      "åİŁå§ĭæķ°æį®": 7790,
      "Ġexpected": 7791,
      "å¹¶ä¸įèĩªåĬ¨æĦıåĳ³çĿĢ": 7792,
      "å¹¶ä¸įèĩªåĬ¨çŃīäºİ": 7793,
      "æĳ©": 7794,
      "Ġreproduce": 7795,
      "Ġreproductive": 7796,
      "Ġlengths": 7797,
      "æĭĨåĪĨ": 7798,
      "éĺ»åĬĽ": 7799,
      "Ġaccelerate": 7800,
      "ç»ıå¸¸ä½¿çĶ¨": 7801,
      "Ġcrosslink": 7802,
      "ç¬¦åĲĪ": 7803,
      "ç¬¦åı·": 7804,
      "Ġelimin": 7805,
      "Ġstandardized": 7806,
      "åįĬåıįåºĶ": 7807,
      "Ġadaptive": 7808,
      "Ġconsistently": 7809,
      "Ġcompletely": 7810,
      "å¹¿æ³Ľ": 7811,
      "Ġscientists": 7812,
      "Ġintervention": 7813,
      "Ġnucleus": 7814,
      "Ġdeployed": 7815,
      "Ġaccumulate": 7816,
      "çĶŁåĳ½åĳ¨æľŁ": 7817,
      "ä¼ĺåħĪéĺŁåĪĹ": 7818,
      "Ġabsorb": 7819,
      "Ġabsorbs": 7820,
      "æĬķå½±": 7821,
      "æĲľç´¢æłĳ": 7822,
      "æī¿è½½": 7823,
      "Ġdifferentiability": 7824,
      "éĢĴæİ¨å¼ı": 7825,
      "è¿ŀéĢļæĢ§": 7826,
      "Ġcharacteristics": 7827,
      "Ġqueues": 7828,
      "æīĭå·¥": 7829,
      "Ġbegin": 7830,
      "å¼łæĪĲ": 7831,
      "Ġdisplay": 7832,
      "åºĵåŃĺæī£": 7833,
      "å·¨å¤§": 7834,
      "çº§ç»ĵæŀĦæııè¿°": 7835,
      "Ġlittle": 7836,
      "Ġchromatin": 7837,
      "Ġchromatography": 7838,
      "Ġsecurity": 7839,
      "èģļåĲĪçī©ç»ĵæŀĦ": 7840,
      "åįķæ¬¡è§Ĥæµĭ": 7841,
      "Ġeruptions": 7842,
      "Ġexploration": 7843,
      "çģ«å±±": 7844,
      "Ġburst": 7845,
      "Ġallele": 7846,
      "å¤ļæł·æĢ§": 7847,
      "å¤ļéĩįç§¯åĪĨ": 7848,
      "Ġdetails": 7849,
      "çŃīä½įåŁºåĽłé¢ĳçİĩ": 7850,
      "äº®åº¦": 7851,
      "Ġtechniques": 7852,
      "Ġmacroscopic": 7853,
      "Ġdisturbance": 7854,
      "Ġvalleys": 7855,
      "pHåĴĮ": 7856,
      "Ġjudge": 7857,
      "Ġpeople": 7858,
      "Ġheaders": 7859,
      "Ġversions": 7860,
      "hibit": 7861,
      "Ġteach": 7862,
      "åĴĮäº§åĵģ": 7863,
      "æ¬ºè¯Īæ£Ģæµĭ": 7864,
      "åºĵåŃĺæī£åĩı": 7865,
      "02": 7866,
      "ET": 7867,
      "JOIN": 7868,
      "OD": 7869,
      "PU": 7870,
      "bability": 7871,
      "bally": 7872,
      "bound": 7873,
      "iel": 7874,
      "met": 7875,
      "pressure": 7876,
      "rons": 7877,
      "¥¿": 7878,
      "¿åĳ½": 7879,
      "èĶ": 7880,
      "è¥¿": 7881,
      "Ġom": 7882,
      "Ġ60": 7883,
      "ħéĢŁ": 7884,
      "ĳåĪ¶": 7885,
      "ä¸°å¯Į": 7886,
      "Ġaction": 7887,
      "Ġtake": 7888,
      "attention": 7889,
      "Ġsinks": 7890,
      "ening": 7891,
      "åĪ»": 7892,
      "è¿ħéĢŁ": 7893,
      "orld": 7894,
      "Ġmas": 7895,
      "Ġmid": 7896,
      "Ġmark": 7897,
      "Ġded": 7898,
      "Ġdem": 7899,
      "çļĦç©ºéĹ´": 7900,
      "çļĦè¡¨ç¤º": 7901,
      "çļĦåŁºç¡Ģ": 7902,
      "çļĦèĬĤçĤ¹": 7903,
      "Ġpush": 7904,
      "Ġbinary": 7905,
      "Ġbring": 7906,
      "Ġfam": 7907,
      "Ġfig": 7908,
      "Ġfloor": 7909,
      "Ġwords": 7910,
      "Ġisot": 7911,
      "ä¸įæĶ¹åıĺ": 7912,
      "åĴĮå¤ļ": 7913,
      "åĴĮå¤įæĿĤ": 7914,
      "åĴĮèĥ½éĩı": 7915,
      "åĴĮæĸ¹å·®": 7916,
      "æķ°æĢ§": 7917,
      "ä¼¤": 7918,
      "æĬĳåĪ¶": 7919,
      "æĪĲåĳĺ": 7920,
      "å¯¿åĳ½": 7921,
      "ä¸Ńæĺ¯åĲ¦": 7922,
      "ä¸Ńäº§çĶŁ": 7923,
      "Ġproject": 7924,
      "istry": 7925,
      "åı¯ä»¥åĲĮæĹ¶": 7926,
      "ä¼ļåıĹåĪ°": 7927,
      "ä¼ļå¯¼èĩ´": 7928,
      "çĽ¸å½ĵ": 7929,
      "åħ³éĹŃ": 7930,
      "æ¨ª": 7931,
      "æľ¬è´¨": 7932,
      "Ġridges": 7933,
      "åŃ¦åĴĮ": 7934,
      "å¤ļå¿«": 7935,
      "è¿ĺèĥ½": 7936,
      "å±ı": 7937,
      "æ¨¡åŀĭéĢīæĭ©": 7938,
      "å¹¶ä¸įåıªæĺ¯": 7939,
      "ä¹ĭå¤ĸ": 7940,
      "ä¸įåĲĮåĪĨè§£": 7941,
      "herm": 7942,
      "cking": 7943,
      "Ġseen": 7944,
      "åĩºçļĦ": 7945,
      "Ġdele": 7946,
      "çĤ¸": 7947,
      "Ġheated": 7948,
      "Ġintention": 7949,
      "active": 7950,
      "å®ĥä¸İ": 7951,
      "è®¾å®ļ": 7952,
      "èĩªåĽŀå½Ĵ": 7953,
      "ä¹Łæľī": 7954,
      "ä¸ĭä¸Ģ": 7955,
      "ä¸ĭä¸Ģä¸ª": 7956,
      "éļıæĦı": 7957,
      "iberate": 7958,
      "ROC": 7959,
      "åĪĻéĢļè¿ĩ": 7960,
      "åŁºåħĥ": 7961,
      "æ²¸": 7962,
      "ä½įæķ°": 7963,
      "ounting": 7964,
      "probability": 7965,
      "ä¾Ŀæķ°æĢ§": 7966,
      "ä»įåı¯": 7967,
      "æĹ¶éĹ´æĪĸ": 7968,
      "æĹ¶éĹ´é¡ºåºı": 7969,
      "Ġinteract": 7970,
      "Ġcap": 7971,
      "éĻĲåĪ¶çļĦ": 7972,
      "Ġpert": 7973,
      "åĪĨå¸ĥåĴĮ": 7974,
      "åıĤæķ°æĪĸ": 7975,
      "Ġtrained": 7976,
      "éĩĮå¥¥": 7977,
      "Ġbehave": 7978,
      "Ġworkf": 7979,
      "å¤įæĿĤçļĦ": 7980,
      "æ¸©å®¤": 7981,
      "è§ĴåĬłéĢŁåº¦": 7982,
      "åĩºçİ°çļĦ": 7983,
      "Ġgenerating": 7984,
      "å¼ķæĵ": 7985,
      "ç»ĪæŃ¢": 7986,
      "æŀģé«ĺ": 7987,
      "Ġassuming": 7988,
      "Ġsmo": 7989,
      "Ġrandomization": 7990,
      "å¾ĦåĲĳéĢŁåº¦": 7991,
      "è´¨éĩıåĪĨå¸ĥ": 7992,
      "Ġcold": 7993,
      "Ġsurve": 7994,
      "äºĴæĸ¥": 7995,
      "èĥĮåİĭ": 7996,
      "Ġstatistically": 7997,
      "ç§ĳéĩĮå¥¥": 7998,
      "è¿ĲåĬ¨åĴĮ": 7999,
      "ĠRandom": 8000,
      "Ġupdating": 8001,
      "Ġoccup": 8002,
      "åģļåĩº": 8003,
      "æķ°åĢ¼æ±Ĥæł¹": 8004,
      "Ġways": 8005,
      "bital": 8006,
      "å¤©æĸĩ": 8007,
      "ç¾¤èĲ½": 8008,
      "Ġclasses": 8009,
      "éĩįæĸ°åĪĨéħį": 8010,
      "Ġranges": 8011,
      "åŁºåĽłè°ĥæİ§": 8012,
      "ĠCOALESCE": 8013,
      "Ġretri": 8014,
      "Ġretry": 8015,
      "ä¸įä¼ļèĩªåĬ¨": 8016,
      "éļ¾åº¦": 8017,
      "è½¨éģĵè¿ĲåĬ¨": 8018,
      "çŁŃæĹ¶éĹ´åĨħ": 8019,
      "èµĦæºĲéĻĲåĪ¶": 8020,
      "åħ¬å¼Ģ": 8021,
      "ä½Ļå¼¦": 8022,
      "éĩĩçĶ¨": 8023,
      "æķ°æį®åºĵè§ĦèĮĥåĮĸ": 8024,
      "Ġgeolog": 8025,
      "Ġamounts": 8026,
      "ç±»åĪ«ä¸įå¹³è¡¡": 8027,
      "Ġfiles": 8028,
      "æī©å¤§": 8029,
      "éĥ½ä¼ļæĶ¹åıĺ": 8030,
      "Ġeventual": 8031,
      "Ġcontainers": 8032,
      "Ġattract": 8033,
      "å¤įæĿĤåº¦åĴĮ": 8034,
      "åĳ½ä¸Ń": 8035,
      "Ġwrong": 8036,
      "Ġwrite": 8037,
      "ä»įçĦ¶æĺ¯": 8038,
      "hemical": 8039,
      "Ġimproves": 8040,
      "fitting": 8041,
      "å¹¶åıĳæĢ§èĥ½": 8042,
      "åŃĺåĤ¨å¼ķæĵ": 8043,
      "æ¶²æĢģ": 8044,
      "Ġglobally": 8045,
      "ç§įç¾¤éģĹä¼ł": 8046,
      "Ġincluding": 8047,
      "Ġinstances": 8048,
      "Ġencode": 8049,
      "å»¶è¿ŁåĴĮ": 8050,
      "seq": 8051,
      "Ġwinds": 8052,
      "Ġesc": 8053,
      "Ġwave": 8054,
      "åİŁå§ĭæł·æľ¬": 8055,
      "Ġconsumers": 8056,
      "ä¸įèĥ½åıªéĿł": 8057,
      "Ġwrites": 8058,
      "Ġwriting": 8059,
      "Ġlooks": 8060,
      "Ġprobabilistic": 8061,
      "é©¬": 8062,
      "Ġevaluates": 8063,
      "Ġcharges": 8064,
      "ç©ºæ°ĶåĽ¢": 8065,
      "ç©ºæ°Ķéĺ»åĬĽ": 8066,
      "Ġlaws": 8067,
      "åı¯çĶ¨æĢ§": 8068,
      "è§ĴåĬ¨éĩıå®ĪæģĴ": 8069,
      "Ġauthent": 8070,
      "Ġpoorly": 8071,
      "Ġhandling": 8072,
      "elivery": 8073,
      "Ġaddressing": 8074,
      "Ġfraction": 8075,
      "Ġalternating": 8076,
      "æİ¢æµĭ": 8077,
      "åħįçĸ«ç³»ç»Ł": 8078,
      "Ġextends": 8079,
      "Ġdifficulty": 8080,
      "Ġcurves": 8081,
      "åģ¶å°Ķ": 8082,
      "Ġreturns": 8083,
      "Ġreports": 8084,
      "ceeded": 8085,
      "Ġtemporary": 8086,
      "ç»´æĬ¤æĪĲæľ¬": 8087,
      "Ġfinancial": 8088,
      "Ġjoins": 8089,
      "Ġdeliberate": 8090,
      "Ġentirely": 8091,
      "ä¸ĸä»£": 8092,
      "Ġantib": 8093,
      "Ġdisplace": 8094,
      "çĶµæŀģçĶµåĬ¿": 8095,
      "åĪĨå¸ĥå¼ıç³»ç»Ł": 8096,
      "Ġparticipants": 8097,
      "éĤ£æł·": 8098,
      "Ġdiagnost": 8099,
      "æº¶æ¶²ä¸Ń": 8100,
      "ä¸īç»´ç»ĵæŀĦ": 8101,
      "query": 8102,
      "æµ®çĤ¹": 8103,
      "Ġsubstantially": 8104,
      "Ġmemorize": 8105,
      "Ġlife": 8106,
      "Ġremoving": 8107,
      "Ġaugmentation": 8108,
      "Ġoscillations": 8109,
      "Ġanalyzed": 8110,
      "çŀ¬éĹ´": 8111,
      "Ġfundamental": 8112,
      "çŁ¿çī©": 8113,
      "Ġprotocol": 8114,
      "Ġfloating": 8115,
      "Ġgenuinely": 8116,
      "å¥ĩå¼Ĥ": 8117,
      "orrect": 8118,
      "çľŁç©ºä¸Ń": 8119,
      "going": 8120,
      "Ġslope": 8121,
      "Ġpermanently": 8122,
      "çĪĨçĤ¸": 8123,
      "ontaneous": 8124,
      "Ġadvance": 8125,
      "Ġmembership": 8126,
      "çģµæ´»": 8127,
      "Ġeliminate": 8128,
      "Ġteacher": 8129,
      "ield": 8130,
      "èĶ½": 8131,
      "Ġintentionally": 8132,
      "åŁºåħĥæŃ¥éª¤": 8133,
      "ç§ĳéĩĮå¥¥åĪ©": 8134,
      "åŃĺåĤ¨å¼ķæĵİ": 8135,
      "CO": 8136,
      "Com": 8137,
      "LayerNorm": 8138,
      "Precision": 8139,
      "Qu": 8140,
      "TTL": 8141,
      "current": 8142,
      "dle": 8143,
      "eas": 8144,
      "ff": 8145,
      "fix": 8146,
      "hand": 8147,
      "metic": 8148,
      "ok": 8149,
      "opl": 8150,
      "par": 8151,
      "squ": 8152,
      "uplication": 8153,
      "warmup": 8154,
      "®ä»¶": 8155,
      "å¦": 8156,
      "èħ": 8157,
      "Ġ8": 8158,
      "Ġir": 8159,
      "Ġtim": 8160,
      "Ġtuning": 8161,
      "rees": 8162,
      "erance": 8163,
      "ernel": 8164,
      "Ġsender": 8165,
      "Ġmelting": 8166,
      "itation": 8167,
      "itable": 8168,
      "itudes": 8169,
      "itted": 8170,
      "çļĦæ¨¡åŀĭ": 8171,
      "çļĦè®¡ç®Ĺ": 8172,
      "çļĦæĸ¹åĲĳ": 8173,
      "çļĦæľīæķĪ": 8174,
      "Ġpage": 8175,
      "Ġbases": 8176,
      "Ġbran": 8177,
      "Ġbond": 8178,
      "Ġbillions": 8179,
      "Ġrear": 8180,
      "Ġinform": 8181,
      "Ġinval": 8182,
      "omain": 8183,
      "Ġoceans": 8184,
      "Ġecosystem": 8185,
      "åı¯æİ§": 8186,
      "åı¯è§Ĥæµĭ": 8187,
      "åı¯ä¿¡åº¦": 8188,
      "åĴĮç»ĵæŀĦ": 8189,
      "åĴĮè®¸å¤ļ": 8190,
      "åĴĮç¼ĵåŃĺ": 8191,
      "asion": 8192,
      "ä¼´": 8193,
      "Ġconversion": 8194,
      "åľ¨æīĢæľī": 8195,
      "åľ¨éĢĤå½ĵ": 8196,
      "uler": 8197,
      "raft": 8198,
      "ety": 8199,
      "etime": 8200,
      "æĪĲéĶ®": 8201,
      "otive": 8202,
      "ä¸Ńå¯»æī¾": 8203,
      "Ġproport": 8204,
      "Ġher": 8205,
      "Ġhire": 8206,
      "Ġhaving": 8207,
      "step": 8208,
      "ĠTrans": 8209,
      "æĢ§æĿĲæĸĻ": 8210,
      "amorph": 8211,
      "å¸¸ä¸İ": 8212,
      "ä¼ļè¯Ŀ": 8213,
      "æĽ´èĥ½": 8214,
      "æĽ´åĬł": 8215,
      "æĽ´ç®Ģåįķ": 8216,
      "è¿ĩå¼º": 8217,
      "æł·åĵģ": 8218,
      "Ġexcl": 8219,
      "Ġcompet": 8220,
      "ä¸İçľŁå®ŀ": 8221,
      "æ¨¡éķ¿": 8222,
      "osite": 8223,
      "æľĢå¿«": 8224,
      "åĬ¨åĬ¿": 8225,
      "ithmetic": 8226,
      "Ġneither": 8227,
      "å¤ļæŃ¥": 8228,
      "å¤ļå±Ĥ": 8229,
      "åĲİåı¯èĥ½": 8230,
      "è¿ĺåı¯": 8231,
      "è¿ĺåı¯ä»¥": 8232,
      "è¿ĺåıĸåĨ³äºİ": 8233,
      "çĶµåĬ¨åĬ¿": 8234,
      "åŃĲè¯į": 8235,
      "æ¨¡åŀĭä¼ļ": 8236,
      "æ¨¡åŀĭåıĤæķ°": 8237,
      "ä¸įåĲĮåŁº": 8238,
      "ä¸įåĲĮç±»åŀĭ": 8239,
      "åı¯èĥ½è¢«": 8240,
      "Ġdepth": 8241,
      "æĭħ": 8242,
      "çİĩåĴĮ": 8243,
      "æŃ£ç±»": 8244,
      "åħĪæĬĬ": 8245,
      "ively": 8246,
      "åıªçľĭ": 8247,
      "çĤ¹éĻĦè¿ĳ": 8248,
      "åİŁä½ĵ": 8249,
      "Ġcontention": 8250,
      "çŃīç»ĵæŀĦ": 8251,
      "ä¹Łä¸į": 8252,
      "å¹³è¡Į": 8253,
      "å¹³ç§»": 8254,
      "åĬłå·¥": 8255,
      "åĬłæ³ķåĴĮ": 8256,
      "è·³": 8257,
      "å°ıåĪĨåŃĲ": 8258,
      "éĽ¨": 8259,
      "éĽª": 8260,
      "ibr": 8261,
      "åĪĻæĺ¯": 8262,
      "éĢļå¸¸åıª": 8263,
      "è®Ńç»ĥè¿ĩç¨ĭä¸Ń": 8264,
      "è¾¹éĻħ": 8265,
      "ä½Ĩå®ĥ": 8266,
      "åıĹæįŁ": 8267,
      "ignific": 8268,
      "Ġrough": 8269,
      "éĶ®åĴĮ": 8270,
      "è®¡ç®ĹæĪĲæľ¬": 8271,
      "åĨįå¯¹": 8272,
      "çłĶç©¶äººåĳĺ": 8273,
      "Ġmanual": 8274,
      "æıĲäº¤": 8275,
      "æĮģæľī": 8276,
      "è§Ĥå¯Łæķ°æį®": 8277,
      "Ġdescending": 8278,
      "necess": 8279,
      "Ġarg": 8280,
      "Ġarri": 8281,
      "Ġarrows": 8282,
      "Ġarithmetic": 8283,
      "çĽ¸åħ³ä½Ĩ": 8284,
      "ç½ĳç»ľåĴĮ": 8285,
      "èĥ½å¤Łè¢«": 8286,
      "Ġrecurs": 8287,
      "éĵ¶": 8288,
      "éĵģ": 8289,
      "åħ¶ä¸ŃçļĦ": 8290,
      "ç»Ĩèĥŀåĳ¨æľŁ": 8291,
      "å±Ģåľ°": 8292,
      "åĽ¾çīĩ": 8293,
      "éĢŁåº¦åĴĮ": 8294,
      "Ġgenerated": 8295,
      "Ġgenerates": 8296,
      "ĠNADH": 8297,
      "Ġparts": 8298,
      "ç´łæķ°": 8299,
      "åħīéĢŁ": 8300,
      "ĠElect": 8301,
      "Ġrad": 8302,
      "æŀģåĢ¼": 8303,
      "Ġlocation": 8304,
      "å®ŀéªĮå®¤": 8305,
      "åı¦ä¸Ģ": 8306,
      "éħįå¹³": 8307,
      "éªĮè¯ģåĴĮ": 8308,
      "å¤ļä¸ªåı¯èĥ½": 8309,
      "å¤ļä¸ªäºĭåĬ¡": 8310,
      "å±Ģéĥ¨æľĢä¼ĺ": 8311,
      "ä½ľçĶ¨åĬĽ": 8312,
      "èĬ±": 8313,
      "å¾®æ³¢": 8314,
      "Ġsurround": 8315,
      "Ġsurfaces": 8316,
      "å¹¶ä¸įæĺ¯åĽłä¸º": 8317,
      "æĿĥéĻĲ": 8318,
      "Ġrepeating": 8319,
      "æµĭè¯ķæ£ĢæŁ¥": 8320,
      "è¿ŀæİ¥æĸ¹å¼ı": 8321,
      "éĤ®ä»¶": 8322,
      "åį´ä¸įèĥ½": 8323,
      "äº¤æµģ": 8324,
      "Ġcontrolling": 8325,
      "Ġsensor": 8326,
      "Ġoccasion": 8327,
      "æ°§æ°Ķ": 8328,
      "ç¼ĵè§£": 8329,
      "ipitation": 8330,
      "Ġspans": 8331,
      "iously": 8332,
      "Ġdiver": 8333,
      "Ġobjectives": 8334,
      "Ġexperience": 8335,
      "æ¶ĪéĻ¤": 8336,
      "Ġplane": 8337,
      "éĤ»è¿ĳ": 8338,
      "å¤ªå°ı": 8339,
      "struction": 8340,
      "Ġrotating": 8341,
      "ç»§æī¿": 8342,
      "Ġmagnet": 8343,
      "Ġexplains": 8344,
      "ifiers": 8345,
      "ç¼ĵåŃĺåĳ½ä¸Ń": 8346,
      "èİ·å¾ĹæĽ´é«ĺ": 8347,
      "æ°§åĮĸæĢģ": 8348,
      "Ġprecipitation": 8349,
      "ç¼ĸè¯ĳ": 8350,
      "éĩıåŃĲåĬĽåŃ¦": 8351,
      "Ġtransformed": 8352,
      "çĹħæĢģ": 8353,
      "çĹħåİŁä½ĵ": 8354,
      "éĿŀå¸¸éĩįè¦ģ": 8355,
      "ĠLayerNorm": 8356,
      "Ġlogging": 8357,
      "Ġchemistry": 8358,
      "Ġcounting": 8359,
      "æ¡Ĩæŀ¶ä¸Ń": 8360,
      "æķħéļľæģ¢å¤į": 8361,
      "èĦĤ": 8362,
      "èĦı": 8363,
      "èĦĳ": 8364,
      "å¹²æ¶ī": 8365,
      "å¤ªéĺ³ç³»": 8366,
      "Ġorbitals": 8367,
      "å¹¶åıĳæİ§åĪ¶": 8368,
      "Ġuniverse": 8369,
      "åıªèĥ½è¯´æĺİ": 8370,
      "çģ¾": 8371,
      "çł´ç¢İ": 8372,
      "Ġweighted": 8373,
      "æĺłå°ĦæĪĲ": 8374,
      "acific": 8375,
      "åĸ·": 8376,
      "å¯ĨçłģåŃ¦": 8377,
      "Ġcyc": 8378,
      "åĿĲæłĩå½¢å¼ı": 8379,
      "Ġadjusts": 8380,
      "æĳĦ": 8381,
      "Ġcarri": 8382,
      "åĪĩæį¢": 8383,
      "æĬĹåİŁ": 8384,
      "ä¸įèĥ½åıªçľĭ": 8385,
      "åĨ³çŃĸè¾¹çķĮ": 8386,
      "Ġserves": 8387,
      "çŃ¾åĲį": 8388,
      "Ġdiscr": 8389,
      "æĢİæł·åıĺåĮĸ": 8390,
      "èŀº": 8391,
      "è§£æŀĲåĻ¨": 8392,
      "Ġpreserving": 8393,
      "Ġbuilds": 8394,
      "Ġadapts": 8395,
      "Ġsuccession": 8396,
      "åĲĪéĢĤçļĦ": 8397,
      "Ġalternatives": 8398,
      "equate": 8399,
      "Ġconsiders": 8400,
      "æľºæ¢°èĥ½": 8401,
      "åºķå±Ĥ": 8402,
      "åı¯éĩįå¤įæĢ§": 8403,
      "Ġcosine": 8404,
      "æİ¥åıĹçĶµåŃĲ": 8405,
      "Ġpriority": 8406,
      "Ġearthquake": 8407,
      "æī©å±ķåĪ°": 8408,
      "æĹ¶éĹ´å°ºåº¦ä¸Ĭ": 8409,
      "Ġdissolution": 8410,
      "Ġacids": 8411,
      "ä¸įä¸Ģå®ļæĺ¯": 8412,
      "Ġprocedure": 8413,
      "åĲİæľŁéĻįä½İ": 8414,
      "Ġinvolving": 8415,
      "Ġtends": 8416,
      "TLS": 8417,
      "Ġwaste": 8418,
      "Ġtectonics": 8419,
      "è½¯ä»¶æµĭè¯ķ": 8420,
      "ç¼©æĶ¾åĴĮ": 8421,
      "Ġmessage": 8422,
      "Ġobtaining": 8423,
      "Ġexploratory": 8424,
      "Ġdominant": 8425,
      "Ġlifetime": 8426,
      "Ġcoverage": 8427,
      "æīĢéľĢçļĦ": 8428,
      "èĢĲèį¯": 8429,
      "Ġunusually": 8430,
      "ĠReal": 8431,
      "ijing": 8432,
      "Ġtrends": 8433,
      "Ġsafer": 8434,
      "Ġreconstruction": 8435,
      "Ġaccumulated": 8436,
      "Ġreproducibility": 8437,
      "éĢĢåĩº": 8438,
      "Ġblackbody": 8439,
      "Ġtolerate": 8440,
      "Ġlinked": 8441,
      "Ġcharged": 8442,
      "Ġratio": 8443,
      "ç½®ä¿¡åĮºéĹ´": 8444,
      "æļĹçī©è´¨": 8445,
      "åĨ»ç»ĵ": 8446,
      "Ġbucket": 8447,
      "çĮ®": 8448,
      "æķ°çĻ¾ä¸ĩ": 8449,
      "å¼¯æĽ²": 8450,
      "æĬµæ¶Ī": 8451,
      "Ġbuffer": 8452,
      "generating": 8453,
      "BatchNorm": 8454,
      "Ġconvection": 8455,
      "éª¨æŀ¶": 8456,
      "Ġimaginary": 8457,
      "ç¤¾äº¤": 8458,
      "Ġsynchronization": 8459,
      "supervised": 8460,
      "processing": 8461,
      "çĽ¸å½ĵäºİ": 8462,
      "æľ¬è´¨ä¸Ĭ": 8463,
      "Ġperturb": 8464,
      "Ġsurveys": 8465,
      "Ġretrie": 8466,
      "Ġescape": 8467,
      "Ġdisplacement": 8468,
      "Ġdiagnostics": 8469,
      "ç§ĳéĩĮå¥¥åĪ©æķĪåºĶ": 8470,
      "Ġinformative": 8471,
      "Ġinvalid": 8472,
      "Ġroughly": 8473,
      "),": 8474,
      "Ad": 8475,
      "NULL": 8476,
      "Rec": 8477,
      "We": 8478,
      "WHERE": 8479,
      "craft": 8480,
      "date": 8481,
      "ever": 8482,
      "first": 8483,
      "hor": 8484,
      "ie": 8485,
      "mass": 8486,
      "num": 8487,
      "network": 8488,
      "oes": 8489,
      "oking": 8490,
      "pre": 8491,
      "pus": 8492,
      "sew": 8493,
      "table": 8494,
      "top": 8495,
      "vable": 8496,
      "zes": 8497,
      "Ģèŀº": 8498,
      "Ġten": 8499,
      "Ġtert": 8500,
      "Ġtiss": 8501,
      "related": 8502,
      "Ġcrypt": 8503,
      "erc": 8504,
      "åı¤": 8505,
      "Ġthous": 8506,
      "ising": 8507,
      "isible": 8508,
      "alth": 8509,
      "Ġmarg": 8510,
      "Ġdimensional": 8511,
      "Ġdriven": 8512,
      "Ġdelivery": 8513,
      "çļĦè¾¹çķĮ": 8514,
      "çļĦåĲĳéĩı": 8515,
      "çļĦçī¹å¾ģ": 8516,
      "çļĦæ¢¯åº¦": 8517,
      "çļĦç§©": 8518,
      "çļĦè´ªå¿ĥ": 8519,
      "çļĦåŁŁåĲį": 8520,
      "Ġpip": 8521,
      "Ġanten": 8522,
      "Ġbug": 8523,
      "Ġbase": 8524,
      "Ġbinding": 8525,
      "çĶ»": 8526,
      "roph": 8527,
      "å¤«": 8528,
      "Ġfart": 8529,
      "ä¸įéĢĤåĲĪ": 8530,
      "ä¸Ģæī¹": 8531,
      "åı¯è§Ĥå¯Ł": 8532,
      "åı¯åĪ©çĶ¨": 8533,
      "åı¯å¤«": 8534,
      "åĴĮæĽ´": 8535,
      "åĴĮåıĤæķ°": 8536,
      "åĴĮç»Ĩèĥŀ": 8537,
      "åĴĮéĶĻè¯¯": 8538,
      "åĴĮæ¸©åº¦": 8539,
      "åĴĮè¯¯å·®": 8540,
      "åĴĮæŁĲäºĽ": 8541,
      "åĴĮæĭ¥å¡ŀ": 8542,
      "åĴĮåıĺè´¨": 8543,
      "lyco": 8544,
      "imization": 8545,
      "ids": 8546,
      "åĪĨæķ°": 8547,
      "åľ¨åİŁ": 8548,
      "åľ¨ä½İ": 8549,
      "åľ¨å¤§éĩı": 8550,
      "ulum": 8551,
      "æĹ¶ç³»ç»Ł": 8552,
      "éĻ¢": 8553,
      "éĻĢèŀº": 8554,
      "æĬĽ": 8555,
      "vered": 8556,
      "ä»¥ä¾¿": 8557,
      "Ġcancel": 8558,
      "åĮĸçŁ³": 8559,
      "ç»ĵå±Ģ": 8560,
      "Ġprop": 8561,
      "Ġhosp": 8562,
      "å¹¶åĲĪ": 8563,
      "å¹¶å¢ŀåĬł": 8564,
      "åºĶä½¿çĶ¨": 8565,
      "ä¼ļåľ¨": 8566,
      "æĽ´æĬ½è±¡": 8567,
      "æĽ´æħ¢": 8568,
      "çĽ¸åºĶ": 8569,
      "ĠIP": 8570,
      "Ġcompatible": 8571,
      "æ¨¡æķ°": 8572,
      "Ġmax": 8573,
      "åŀĴ": 8574,
      "çĶŁç´ł": 8575,
      "å¯¹æķ°": 8576,
      "å¯¹è¯ģæį®": 8577,
      "éĩįæİĴ": 8578,
      "éĩįå¡ĳ": 8579,
      "æĪĸæĸ°": 8580,
      "ptimization": 8581,
      "åĬ¨çī©": 8582,
      "æľ¬åľ°": 8583,
      "ä¸Ģä¸ªçī©ç§į": 8584,
      "ä¸Ģä¸ªepoch": 8585,
      "ends": 8586,
      "Ġneut": 8587,
      "Ġvan": 8588,
      "Ġvaries": 8589,
      "å¤§éĥ¨åĪĨ": 8590,
      "åĲİåĨį": 8591,
      "æķ°æį®çļĦ": 8592,
      "æ¯į": 8593,
      "æ¨¡åŀĭåı¯ä»¥": 8594,
      "ä»İæķ°æį®ä¸Ń": 8595,
      "åı¯èĥ½æĢ§": 8596,
      "åı¯èĥ½éĢłæĪĲ": 8597,
      "Ġunnecess": 8598,
      "çľĭæĪĲ": 8599,
      "æŀĦè±¡": 8600,
      "Ġcould": 8601,
      "é«ĺä¼°": 8602,
      "é«ĺåİĭ": 8603,
      "ĠThese": 8604,
      "ä½ľèĢħ": 8605,
      "Ġsug": 8606,
      "Ġintensity": 8607,
      "çŃīæľºåĪ¶": 8608,
      "çŃīæķĪ": 8609,
      "å®ĥåıªæĺ¯": 8610,
      "Ġdistant": 8611,
      "èĩªè¡Į": 8612,
      "Ġforcing": 8613,
      "éģ¥": 8614,
      "éģĩ": 8615,
      "é¡¶": 8616,
      "æłĩè¯Ĩ": 8617,
      "Ġsources": 8618,
      "Ġsocial": 8619,
      "åĽłæŃ¤éľĢè¦ģ": 8620,
      "åĪĻåĨ³å®ļ": 8621,
      "æķ´åĲĪ": 8622,
      "è®Ńç»ĥæ¨¡åŀĭ": 8623,
      "Ġpred": 8624,
      "åŁºäºİ": 8625,
      "ä½Ĩåľ¨": 8626,
      "ä½ĨçľŁå®ŀ": 8627,
      "ä½Ĩä¸įä¼ļ": 8628,
      "ç¼ĺ": 8629,
      "Ġscience": 8630,
      "è½¬çŁ©": 8631,
      "è½¬è½´": 8632,
      "plex": 8633,
      "ç¦»åŁŁ": 8634,
      "uds": 8635,
      "éĶ®åĢ¼": 8636,
      "Ġmistakes": 8637,
      "Ġvalence": 8638,
      "Ġrelates": 8639,
      "æ¬§": 8640,
      "æł·æľ¬éĢīæĭ©": 8641,
      "æł·æľ¬çļĦå¯¹è±¡": 8642,
      "é¢Ħå¤ĦçĲĨ": 8643,
      "è®¡ç®ĹçļĦ": 8644,
      "ĠBFS": 8645,
      "åģĩéĺ³æĢ§": 8646,
      "éĢĤåº¦": 8647,
      "Ġgenetics": 8648,
      "è§Ĥå¯ŁèĢħ": 8649,
      "Ġdescription": 8650,
      "ç½ĳç»ľéĢļä¿¡": 8651,
      "èĥ½å¤Łå½¢æĪĲ": 8652,
      "Ġdecimal": 8653,
      "Ġabund": 8654,
      "Ġconside": 8655,
      "å¿ħé¡»ä¸İ": 8656,
      "ç½®ä¿¡åº¦": 8657,
      "æ¶¡": 8658,
      "è§ĴéĢŁåº¦": 8659,
      "è§Ĵèī²": 8660,
      "åģıå¥½": 8661,
      "åģıå¯¼æķ°": 8662,
      "exist": 8663,
      "åıĺéĩıåĲĮæĹ¶": 8664,
      "Ġmetamorph": 8665,
      "åħĥæķ°æį®": 8666,
      "ĠEach": 8667,
      "ĠEven": 8668,
      "ĠEmbedding": 8669,
      "ĠPacific": 8670,
      "Ġexpose": 8671,
      "ç»ĪçĤ¹": 8672,
      "åĨħéĥ¨ç»ĵæŀĦ": 8673,
      "äººä»¬": 8674,
      "ä¸»è¦ģæĶ¹åıĺ": 8675,
      "Ġrandomly": 8676,
      "æµĭéĩıç»ĵæŀľ": 8677,
      "ĠMore": 8678,
      "ossil": 8679,
      "æŁ¥è¯¢ä¼ĺåĮĸåĻ¨": 8680,
      "éªĮè¯ģæįŁå¤±": 8681,
      "æĸ¹æ³ķéĢļè¿ĩ": 8682,
      "çİ¯å¢ĥä¸Ń": 8683,
      "çİ¯å¢ĥä¸ŃçļĦ": 8684,
      "å¹³è¡¡å¸¸æķ°": 8685,
      "åħ³æ³¨çłĶç©¶": 8686,
      "Ġvalidate": 8687,
      "Ġcontinue": 8688,
      "è®¾è®¡çĽ®æłĩ": 8689,
      "éĢĲå±Ĥ": 8690,
      "Ġfeature": 8691,
      "åĽºå®ļçĽ¸": 8692,
      "çŁ©éĺµçļĦç§©": 8693,
      "Ġcombustion": 8694,
      "Ġmultiply": 8695,
      "è¿ĲåĬ¨çĬ¶æĢģ": 8696,
      "Ġoperate": 8697,
      "ç¾İ": 8698,
      "çĶµåŃĲè½¬ç§»": 8699,
      "çī¹å¾ģåĲĳéĩı": 8700,
      "ç¼ĵåĨ²": 8701,
      "Ġspontaneous": 8702,
      "astics": 8703,
      "æķ°åĢ¼è®¡ç®Ĺ": 8704,
      "Ġcomputes": 8705,
      "ometric": 8706,
      "æº¶åīĤ": 8707,
      "Ġextensive": 8708,
      "æ¢¯åº¦åĴĮ": 8709,
      "å¤©çº¿": 8710,
      "Ġclassifier": 8711,
      "ç¼©çŁŃ": 8712,
      "Ġpresence": 8713,
      "éĩįæĸ°è®¡ç®Ĺ": 8714,
      "åŁºåĽłåľ¨": 8715,
      "Ġallowed": 8716,
      "çĸĹ": 8717,
      "angular": 8718,
      "Ġoccurred": 8719,
      "è¯»èĢħ": 8720,
      "è¯»åĨĻ": 8721,
      "è¡Įä¸ºåĴĮ": 8722,
      "Ġconverge": 8723,
      "Ġresponds": 8724,
      "åĪĿæľŁ": 8725,
      "åı¯è§ģåħī": 8726,
      "ç¼ĵåŃĺåĴĮ": 8727,
      "ä¼łæĴŃéĢŁåº¦": 8728,
      "éģĹä¼łä¿¡æģ¯": 8729,
      "å¹¶ä¸įä¸Ģå®ļæĦıåĳ³çĿĢ": 8730,
      "çī©çĲĨéĩı": 8731,
      "åįıä½ľ": 8732,
      "Ġinvest": 8733,
      "æĶ¯åĮĸ": 8734,
      "Ġconstrains": 8735,
      "Ġpredicting": 8736,
      "é¢ĳçİĩåıĺåĮĸ": 8737,
      "Ġcontaining": 8738,
      "readable": 8739,
      "è¿Ľåħ¥æł·æľ¬çļĦå¯¹è±¡": 8740,
      "å¯¹åºĶä¸Ģä¸ª": 8741,
      "çĶµèį·äº§çĶŁçļĦ": 8742,
      "ä¸ļåĬ¡çĬ¶æĢģ": 8743,
      "Ġspeeds": 8744,
      "Ġabsent": 8745,
      "ç»ĻåĩºçļĦ": 8746,
      "Ġaggregation": 8747,
      "Ġdivides": 8748,
      "Ġlabor": 8749,
      "Ġdatasets": 8750,
      "Ġencryption": 8751,
      "Ġreceiving": 8752,
      "æľīæľºåĪĨåŃĲ": 8753,
      "Ġexpectations": 8754,
      "Ġtyping": 8755,
      "Ġtypical": 8756,
      "æĬĹçĶŁç´ł": 8757,
      "åĮ»éĻ¢": 8758,
      "ç¨³å¦": 8759,
      "çĨŁ": 8760,
      "ç§°ä¸º": 8761,
      "Ġelsew": 8762,
      "ç²¾åº¦åĴĮ": 8763,
      "Ġbalances": 8764,
      "Ġinertial": 8765,
      "åįĬå¯¼ä½ĵ": 8766,
      "condition": 8767,
      "Ġcollisions": 8768,
      "æł¡åĩĨåħ³æ³¨": 8769,
      "Ġfrag": 8770,
      "åįģåĪĨ": 8771,
      "Ġresistant": 8772,
      "çº¢å¤ĸ": 8773,
      "æľĢå¤§æµģ": 8774,
      "Ġexplicitly": 8775,
      "èĻļæķ°": 8776,
      "éĢĨéĹ®é¢ĺ": 8777,
      "éĢĨåıįåºĶ": 8778,
      "Ġignores": 8779,
      "æĪĲä¸ºæĸ°çļĦ": 8780,
      "Ġsecondary": 8781,
      "åĤ¬åĮĸåīĤéĢļè¿ĩ": 8782,
      "å°Ķåı¯å¤«": 8783,
      "ç¬¬äºĮ": 8784,
      "Ġmixed": 8785,
      "é¢Ħè®Ńç»ĥæ¨¡åŀĭ": 8786,
      "Ġtradeoff": 8787,
      "Ġcarrying": 8788,
      "å¹ĤçŃīæĢ§": 8789,
      "Ġnutrient": 8790,
      "Ġspectra": 8791,
      "Ġcertainty": 8792,
      "Ġimpossible": 8793,
      "æµģåĬ¨çĽ¸": 8794,
      "Ġionic": 8795,
      "Ġdegrees": 8796,
      "æ±ĩæĢ»": 8797,
      "äººå·¥æĻºèĥ½": 8798,
      "æĹ§åĢ¼": 8799,
      "Ġpromote": 8800,
      "Ġunusual": 8801,
      "contin": 8802,
      "Ġcatalysts": 8803,
      "Ġturn": 8804,
      "è´¦æĪ·": 8805,
      "åĩ½æķ°åľ¨æŁĲ": 8806,
      "æĤ£": 8807,
      "æĪĸæĽ´æŀģç«¯": 8808,
      "Ġsimultaneously": 8809,
      "Ġmineral": 8810,
      "Ġminerals": 8811,
      "Ġcircuit": 8812,
      "Ġcircuits": 8813,
      "æĲ¬è¿Ĳ": 8814,
      "è§¦åıĳ": 8815,
      "Ġstabilize": 8816,
      "Ġsurvivorship": 8817,
      "æ¹¿": 8818,
[...]
